#include "magic_wand_model_data.h"

// We need to keep the data array aligned on some architectures.
#ifdef __has_attribute
#define HAVE_ATTRIBUTE(x) __has_attribute(x)
#else
#define HAVE_ATTRIBUTE(x) 0
#endif
#if HAVE_ATTRIBUTE(aligned) || (defined(__GNUC__) && !defined(__clang__))
#define DATA_ALIGN_ATTRIBUTE __attribute__((aligned(4)))
#else
#define DATA_ALIGN_ATTRIBUTE
#endif

const unsigned char g_magic_wand_model_data[] DATA_ALIGN_ATTRIBUTE = {
  // Paste the data of the char array in `src/model.cc` here
  
  0x1c, 0x00, 0x00, 0x00, 0x54, 0x46, 0x4c, 0x33, 0x14, 0x00, 0x20, 0x00,
  0x04, 0x00, 0x08, 0x00, 0x0c, 0x00, 0x10, 0x00, 0x14, 0x00, 0x00, 0x00,
  0x18, 0x00, 0x1c, 0x00, 0x14, 0x00, 0x00, 0x00, 0x03, 0x00, 0x00, 0x00,
  0x18, 0x00, 0x00, 0x00, 0x2c, 0x00, 0x00, 0x00, 0xd8, 0x00, 0x00, 0x00,
  0x2c, 0x00, 0x00, 0x00, 0x80, 0x00, 0x00, 0x00, 0x78, 0x00, 0x00, 0x00,
  0x05, 0x00, 0x00, 0x00, 0x28, 0x07, 0x00, 0x00, 0x44, 0x06, 0x00, 0x00,
  0xbc, 0x03, 0x00, 0x00, 0xf8, 0x02, 0x00, 0x00, 0xac, 0x01, 0x00, 0x00,
  0x01, 0x00, 0x00, 0x00, 0xd0, 0x00, 0x00, 0x00, 0x14, 0x00, 0x00, 0x00,
  0x98, 0x32, 0x00, 0x00, 0x94, 0x32, 0x00, 0x00, 0x8c, 0x31, 0x00, 0x00,
  0xd8, 0x30, 0x00, 0x00, 0x30, 0x30, 0x00, 0x00, 0xbc, 0x2f, 0x00, 0x00,
  0x50, 0x2f, 0x00, 0x00, 0x00, 0x13, 0x00, 0x00, 0xec, 0x11, 0x00, 0x00,
  0x10, 0x10, 0x00, 0x00, 0xb4, 0x07, 0x00, 0x00, 0x6c, 0x32, 0x00, 0x00,
  0x68, 0x32, 0x00, 0x00, 0x64, 0x32, 0x00, 0x00, 0x60, 0x32, 0x00, 0x00,
  0x5c, 0x32, 0x00, 0x00, 0x58, 0x32, 0x00, 0x00, 0x54, 0x32, 0x00, 0x00,
  0x50, 0x32, 0x00, 0x00, 0x3c, 0x00, 0x00, 0x00, 0x00, 0x00, 0x00, 0x00,
  0x01, 0x00, 0x00, 0x00, 0x0c, 0x00, 0x00, 0x00, 0x08, 0x00, 0x0c, 0x00,
  0x04, 0x00, 0x08, 0x00, 0x08, 0x00, 0x00, 0x00, 0x08, 0x00, 0x00, 0x00,
  0x13, 0x00, 0x00, 0x00, 0x13, 0x00, 0x00, 0x00, 0x6d, 0x69, 0x6e, 0x5f,
  0x72, 0x75, 0x6e, 0x74, 0x69, 0x6d, 0x65, 0x5f, 0x76, 0x65, 0x72, 0x73,
  0x69, 0x6f, 0x6e, 0x00, 0xfa, 0xce, 0xff, 0xff, 0x04, 0x00, 0x00, 0x00,
  0x10, 0x00, 0x00, 0x00, 0x31, 0x2e, 0x35, 0x2e, 0x30, 0x00, 0x00, 0x00,
  0x00, 0x00, 0x00, 0x00, 0x00, 0x00, 0x00, 0x00, 0x0f, 0x00, 0x00, 0x00,
  0x4d, 0x4c, 0x49, 0x52, 0x20, 0x43, 0x6f, 0x6e, 0x76, 0x65, 0x72, 0x74,
  0x65, 0x64, 0x2e, 0x00, 0x00, 0x00, 0x0e, 0x00, 0x18, 0x00, 0x04, 0x00,
  0x08, 0x00, 0x0c, 0x00, 0x10, 0x00, 0x14, 0x00, 0x0e, 0x00, 0x00, 0x00,
  0x14, 0x00, 0x00, 0x00, 0x5c, 0x00, 0x00, 0x00, 0x60, 0x00, 0x00, 0x00,
  0x64, 0x00, 0x00, 0x00, 0x84, 0x00, 0x00, 0x00, 0x12, 0x00, 0x00, 0x00,
  0x58, 0x31, 0x00, 0x00, 0xe8, 0x30, 0x00, 0x00, 0x44, 0x30, 0x00, 0x00,
  0x9c, 0x2f, 0x00, 0x00, 0xf4, 0x2e, 0x00, 0x00, 0x94, 0x2e, 0x00, 0x00,
  0x2c, 0x2e, 0x00, 0x00, 0xd8, 0x11, 0x00, 0x00, 0xbc, 0x10, 0x00, 0x00,
  0xe0, 0x0e, 0x00, 0x00, 0x0c, 0x06, 0x00, 0x00, 0x28, 0x05, 0x00, 0x00,
  0xe8, 0x03, 0x00, 0x00, 0x3c, 0x03, 0x00, 0x00, 0x98, 0x02, 0x00, 0x00,
  0xd4, 0x01, 0x00, 0x00, 0x10, 0x01, 0x00, 0x00, 0x84, 0x00, 0x00, 0x00,
  0x01, 0x00, 0x00, 0x00, 0x00, 0x00, 0x00, 0x00, 0x01, 0x00, 0x00, 0x00,
  0x11, 0x00, 0x00, 0x00, 0x08, 0x00, 0x00, 0x00, 0x74, 0x05, 0x00, 0x00,
  0x94, 0x04, 0x00, 0x00, 0x78, 0x03, 0x00, 0x00, 0xbc, 0x02, 0x00, 0x00,
  0x30, 0x02, 0x00, 0x00, 0x50, 0x01, 0x00, 0x00, 0xa8, 0x00, 0x00, 0x00,
  0x10, 0x00, 0x00, 0x00, 0x04, 0x00, 0x00, 0x00, 0x6d, 0x61, 0x69, 0x6e,
  0x00, 0x00, 0x00, 0x00, 0x7a, 0xff, 0xff, 0xff, 0x00, 0x00, 0x00, 0x09,
  0x04, 0x00, 0x00, 0x00, 0x1c, 0x00, 0x00, 0x00, 0x10, 0x00, 0x00, 0x00,
  0x04, 0x00, 0x00, 0x00, 0xf6, 0xcf, 0xff, 0xff, 0x00, 0x00, 0x80, 0x3f,
  0x01, 0x00, 0x00, 0x00, 0x11, 0x00, 0x00, 0x00, 0x01, 0x00, 0x00, 0x00,
  0x10, 0x00, 0x00, 0x00, 0xa0, 0xfa, 0xff, 0xff, 0x19, 0x00, 0x00, 0x00,
  0x00, 0x00, 0x00, 0x19, 0x01, 0x00, 0x00, 0x00, 0x84, 0xcf, 0xff, 0xff,
  0x14, 0x00, 0x00, 0x00, 0x12, 0x00, 0x00, 0x00, 0x18, 0x00, 0x00, 0x00,
  0x30, 0x00, 0x00, 0x00, 0x20, 0x00, 0x00, 0x00, 0x02, 0x00, 0x00, 0x00,
  0x01, 0x00, 0x00, 0x00, 0x03, 0x00, 0x00, 0x00, 0x08, 0x00, 0x00, 0x00,
  0x49, 0x64, 0x65, 0x6e, 0x74, 0x69, 0x74, 0x79, 0x00, 0x00, 0x00, 0x00,
  0x02, 0x00, 0x00, 0x00, 0xff, 0xff, 0xff, 0xff, 0x03, 0x00, 0x00, 0x00,
  0x68, 0xd0, 0xff, 0xff, 0x00, 0x00, 0x0e, 0x00, 0x18, 0x00, 0x08, 0x00,
  0x0c, 0x00, 0x10, 0x00, 0x07, 0x00, 0x14, 0x00, 0x0e, 0x00, 0x00, 0x00,
  0x00, 0x00, 0x00, 0x08, 0x03, 0x00, 0x00, 0x00, 0x18, 0x00, 0x00, 0x00,
  0x0c, 0x00, 0x00, 0x00, 0x04, 0x00, 0x00, 0x00, 0x84, 0xcf, 0xff, 0xff,
  0x01, 0x00, 0x00, 0x00, 0x10, 0x00, 0x00, 0x00, 0x03, 0x00, 0x00, 0x00,
  0x0f, 0x00, 0x00, 0x00, 0x07, 0x00, 0x00, 0x00, 0x04, 0x00, 0x00, 0x00,
  0x0c, 0xd0, 0xff, 0xff, 0x14, 0x00, 0x00, 0x00, 0x11, 0x00, 0x00, 0x00,
  0x18, 0x00, 0x00, 0x00, 0x5c, 0x00, 0x00, 0x00, 0x4c, 0x00, 0x00, 0x00,
  0x02, 0x00, 0x00, 0x00, 0x01, 0x00, 0x00, 0x00, 0x03, 0x00, 0x00, 0x00,
  0x34, 0x00, 0x00, 0x00, 0x73, 0x65, 0x71, 0x75, 0x65, 0x6e, 0x74, 0x69,
  0x61, 0x6c, 0x2f, 0x64, 0x65, 0x6e, 0x73, 0x65, 0x5f, 0x31, 0x2f, 0x4d,
  0x61, 0x74, 0x4d, 0x75, 0x6c, 0x3b, 0x73, 0x65, 0x71, 0x75, 0x65, 0x6e,
  0x74, 0x69, 0x61, 0x6c, 0x2f, 0x64, 0x65, 0x6e, 0x73, 0x65, 0x5f, 0x31,
  0x2f, 0x42, 0x69, 0x61, 0x73, 0x41, 0x64, 0x64, 0x00, 0x00, 0x00, 0x00,
  0x02, 0x00, 0x00, 0x00, 0xff, 0xff, 0xff, 0xff, 0x03, 0x00, 0x00, 0x00,
  0x0c, 0xd0, 0xff, 0xff, 0xda, 0xfc, 0xff, 0xff, 0x00, 0x00, 0x00, 0x08,
  0x03, 0x00, 0x00, 0x00, 0x24, 0x00, 0x00, 0x00, 0x18, 0x00, 0x00, 0x00,
  0x0c, 0x00, 0x00, 0x00, 0x00, 0x00, 0x06, 0x00, 0x08, 0x00, 0x07, 0x00,
  0x06, 0x00, 0x00, 0x00, 0x00, 0x00, 0x00, 0x01, 0x01, 0x00, 0x00, 0x00,
  0x0f, 0x00, 0x00, 0x00, 0x03, 0x00, 0x00, 0x00, 0x0e, 0x00, 0x00, 0x00,
  0x06, 0x00, 0x00, 0x00, 0x03, 0x00, 0x00, 0x00, 0xe8, 0xfb, 0xff, 0xff,
  0x09, 0x00, 0x00, 0x00, 0x00, 0x00, 0x00, 0x09, 0x01, 0x00, 0x00, 0x00,
  0xcc, 0xd0, 0xff, 0xff, 0x14, 0x00, 0x00, 0x00, 0x10, 0x00, 0x00, 0x00,
  0x18, 0x00, 0x00, 0x00, 0x6c, 0x00, 0x00, 0x00, 0x5c, 0x00, 0x00, 0x00,
  0x02, 0x00, 0x00, 0x00, 0x01, 0x00, 0x00, 0x00, 0x10, 0x00, 0x00, 0x00,
  0x46, 0x00, 0x00, 0x00, 0x73, 0x65, 0x71, 0x75, 0x65, 0x6e, 0x74, 0x69,
  0x61, 0x6c, 0x2f, 0x64, 0x65, 0x6e, 0x73, 0x65, 0x2f, 0x4d, 0x61, 0x74,
  0x4d, 0x75, 0x6c, 0x3b, 0x73, 0x65, 0x71, 0x75, 0x65, 0x6e, 0x74, 0x69,
  0x61, 0x6c, 0x2f, 0x64, 0x65, 0x6e, 0x73, 0x65, 0x2f, 0x52, 0x65, 0x6c,
  0x75, 0x3b, 0x73, 0x65, 0x71, 0x75, 0x65, 0x6e, 0x74, 0x69, 0x61, 0x6c,
  0x2f, 0x64, 0x65, 0x6e, 0x73, 0x65, 0x2f, 0x42, 0x69, 0x61, 0x73, 0x41,
  0x64, 0x64, 0x00, 0x00, 0x02, 0x00, 0x00, 0x00, 0xff, 0xff, 0xff, 0xff,
  0x10, 0x00, 0x00, 0x00, 0xec, 0xd1, 0xff, 0xff, 0x00, 0x00, 0x0a, 0x00,
  0x10, 0x00, 0x04, 0x00, 0x08, 0x00, 0x0c, 0x00, 0x0a, 0x00, 0x00, 0x00,
  0x02, 0x00, 0x00, 0x00, 0x10, 0x00, 0x00, 0x00, 0x04, 0x00, 0x00, 0x00,
  0x01, 0x00, 0x00, 0x00, 0x0e, 0x00, 0x00, 0x00, 0x02, 0x00, 0x00, 0x00,
  0x0d, 0x00, 0x00, 0x00, 0x05, 0x00, 0x00, 0x00, 0xa8, 0xfc, 0xff, 0xff,
  0x16, 0x00, 0x00, 0x00, 0x00, 0x00, 0x00, 0x16, 0x01, 0x00, 0x00, 0x00,
  0x8c, 0xd1, 0xff, 0xff, 0x14, 0x00, 0x00, 0x00, 0x0f, 0x00, 0x00, 0x00,
  0x18, 0x00, 0x00, 0x00, 0x40, 0x00, 0x00, 0x00, 0x30, 0x00, 0x00, 0x00,
  0x02, 0x00, 0x00, 0x00, 0x01, 0x00, 0x00, 0x00, 0x70, 0x00, 0x00, 0x00,
  0x1a, 0x00, 0x00, 0x00, 0x73, 0x65, 0x71, 0x75, 0x65, 0x6e, 0x74, 0x69,
  0x61, 0x6c, 0x2f, 0x66, 0x6c, 0x61, 0x74, 0x74, 0x65, 0x6e, 0x2f, 0x52,
  0x65, 0x73, 0x68, 0x61, 0x70, 0x65, 0x00, 0x00, 0x02, 0x00, 0x00, 0x00,
  0xff, 0xff, 0xff, 0xff, 0x70, 0x00, 0x00, 0x00, 0x70, 0xd1, 0xff, 0xff,
  0x3e, 0xfe, 0xff, 0xff, 0x00, 0x00, 0x00, 0x05, 0x01, 0x00, 0x00, 0x00,
  0x38, 0x00, 0x00, 0x00, 0x2c, 0x00, 0x00, 0x00, 0x14, 0x00, 0x00, 0x00,
  0x00, 0x00, 0x0e, 0x00, 0x14, 0x00, 0x00, 0x00, 0x10, 0x00, 0x0c, 0x00,
  0x08, 0x00, 0x04, 0x00, 0x0e, 0x00, 0x00, 0x00, 0x03, 0x00, 0x00, 0x00,
  0x01, 0x00, 0x00, 0x00, 0x03, 0x00, 0x00, 0x00, 0x01, 0x00, 0x00, 0x00,
  0x01, 0x00, 0x00, 0x00, 0x0d, 0x00, 0x00, 0x00, 0x01, 0x00, 0x00, 0x00,
  0x0c, 0x00, 0x00, 0x00, 0x2c, 0xd2, 0xff, 0xff, 0x14, 0x00, 0x00, 0x00,
  0x0e, 0x00, 0x00, 0x00, 0x20, 0x00, 0x00, 0x00, 0x58, 0x00, 0x00, 0x00,
  0x40, 0x00, 0x00, 0x00, 0x04, 0x00, 0x00, 0x00, 0x01, 0x00, 0x00, 0x00,
  0x07, 0x00, 0x00, 0x00, 0x01, 0x00, 0x00, 0x00, 0x10, 0x00, 0x00, 0x00,
  0x22, 0x00, 0x00, 0x00, 0x73, 0x65, 0x71, 0x75, 0x65, 0x6e, 0x74, 0x69,
  0x61, 0x6c, 0x2f, 0x6d, 0x61, 0x78, 0x5f, 0x70, 0x6f, 0x6f, 0x6c, 0x69,
  0x6e, 0x67, 0x32, 0x64, 0x5f, 0x31, 0x2f, 0x4d, 0x61, 0x78, 0x50, 0x6f,
  0x6f, 0x6c, 0x00, 0x00, 0x04, 0x00, 0x00, 0x00, 0xff, 0xff, 0xff, 0xff,
  0x07, 0x00, 0x00, 0x00, 0x01, 0x00, 0x00, 0x00, 0x10, 0x00, 0x00, 0x00,
  0x28, 0xd2, 0xff, 0xff, 0x1a, 0xfe, 0xff, 0xff, 0x00, 0x00, 0x00, 0x01,
  0x24, 0x00, 0x00, 0x00, 0x18, 0x00, 0x00, 0x00, 0x04, 0x00, 0x00, 0x00,
  0x0c, 0xfe, 0xff, 0xff, 0x01, 0x00, 0x00, 0x00, 0x01, 0x00, 0x00, 0x00,
  0x00, 0x00, 0x00, 0x01, 0x01, 0x00, 0x00, 0x00, 0x0c, 0x00, 0x00, 0x00,
  0x03, 0x00, 0x00, 0x00, 0x0b, 0x00, 0x00, 0x00, 0x09, 0x00, 0x00, 0x00,
  0x02, 0x00, 0x00, 0x00, 0xd4, 0xd2, 0xff, 0xff, 0x14, 0x00, 0x00, 0x00,
  0x0d, 0x00, 0x00, 0x00, 0x20, 0x00, 0x00, 0x00, 0xb8, 0x00, 0x00, 0x00,
  0xa0, 0x00, 0x00, 0x00, 0x04, 0x00, 0x00, 0x00, 0x01, 0x00, 0x00, 0x00,
  0x15, 0x00, 0x00, 0x00, 0x01, 0x00, 0x00, 0x00, 0x10, 0x00, 0x00, 0x00,
  0x83, 0x00, 0x00, 0x00, 0x73, 0x65, 0x71, 0x75, 0x65, 0x6e, 0x74, 0x69,
  0x61, 0x6c, 0x2f, 0x63, 0x6f, 0x6e, 0x76, 0x32, 0x64, 0x5f, 0x31, 0x2f,
  0x52, 0x65, 0x6c, 0x75, 0x3b, 0x73, 0x65, 0x71, 0x75, 0x65, 0x6e, 0x74,
  0x69, 0x61, 0x6c, 0x2f, 0x63, 0x6f, 0x6e, 0x76, 0x32, 0x64, 0x5f, 0x31,
  0x2f, 0x42, 0x69, 0x61, 0x73, 0x41, 0x64, 0x64, 0x3b, 0x73, 0x65, 0x71,
  0x75, 0x65, 0x6e, 0x74, 0x69, 0x61, 0x6c, 0x2f, 0x63, 0x6f, 0x6e, 0x76,
  0x32, 0x64, 0x5f, 0x31, 0x2f, 0x43, 0x6f, 0x6e, 0x76, 0x32, 0x44, 0x3b,
  0x73, 0x65, 0x71, 0x75, 0x65, 0x6e, 0x74, 0x69, 0x61, 0x6c, 0x2f, 0x63,
  0x6f, 0x6e, 0x76, 0x32, 0x64, 0x5f, 0x31, 0x2f, 0x42, 0x69, 0x61, 0x73,
  0x41, 0x64, 0x64, 0x2f, 0x52, 0x65, 0x61, 0x64, 0x56, 0x61, 0x72, 0x69,
  0x61, 0x62, 0x6c, 0x65, 0x4f, 0x70, 0x2f, 0x72, 0x65, 0x73, 0x6f, 0x75,
  0x72, 0x63, 0x65, 0x00, 0x04, 0x00, 0x00, 0x00, 0xff, 0xff, 0xff, 0xff,
  0x15, 0x00, 0x00, 0x00, 0x01, 0x00, 0x00, 0x00, 0x10, 0x00, 0x00, 0x00,
  0x40, 0xd4, 0xff, 0xff, 0x00, 0x00, 0x0e, 0x00, 0x1a, 0x00, 0x08, 0x00,
  0x0c, 0x00, 0x10, 0x00, 0x07, 0x00, 0x14, 0x00, 0x0e, 0x00, 0x00, 0x00,
  0x00, 0x00, 0x00, 0x05, 0x01, 0x00, 0x00, 0x00, 0x3c, 0x00, 0x00, 0x00,
  0x30, 0x00, 0x00, 0x00, 0x14, 0x00, 0x00, 0x00, 0x00, 0x00, 0x0e, 0x00,
  0x18, 0x00, 0x17, 0x00, 0x10, 0x00, 0x0c, 0x00, 0x08, 0x00, 0x04, 0x00,
  0x0e, 0x00, 0x00, 0x00, 0x03, 0x00, 0x00, 0x00, 0x03, 0x00, 0x00, 0x00,
  0x03, 0x00, 0x00, 0x00, 0x03, 0x00, 0x00, 0x00, 0x00, 0x00, 0x00, 0x01,
  0x01, 0x00, 0x00, 0x00, 0x0b, 0x00, 0x00, 0x00, 0x01, 0x00, 0x00, 0x00,
  0x0a, 0x00, 0x00, 0x00, 0x2c, 0xff, 0xff, 0xff, 0x11, 0x00, 0x00, 0x00,
  0x00, 0x00, 0x00, 0x11, 0x01, 0x00, 0x00, 0x00, 0x10, 0xd4, 0xff, 0xff,
  0x14, 0x00, 0x00, 0x00, 0x0c, 0x00, 0x00, 0x00, 0x20, 0x00, 0x00, 0x00,
  0x58, 0x00, 0x00, 0x00, 0x40, 0x00, 0x00, 0x00, 0x04, 0x00, 0x00, 0x00,
  0x01, 0x00, 0x00, 0x00, 0x15, 0x00, 0x00, 0x00, 0x01, 0x00, 0x00, 0x00,
  0x08, 0x00, 0x00, 0x00, 0x20, 0x00, 0x00, 0x00, 0x73, 0x65, 0x71, 0x75,
  0x65, 0x6e, 0x74, 0x69, 0x61, 0x6c, 0x2f, 0x6d, 0x61, 0x78, 0x5f, 0x70,
  0x6f, 0x6f, 0x6c, 0x69, 0x6e, 0x67, 0x32, 0x64, 0x2f, 0x4d, 0x61, 0x78,
  0x50, 0x6f, 0x6f, 0x6c, 0x00, 0x00, 0x00, 0x00, 0x04, 0x00, 0x00, 0x00,
  0xff, 0xff, 0xff, 0xff, 0x15, 0x00, 0x00, 0x00, 0x01, 0x00, 0x00, 0x00,
  0x08, 0x00, 0x00, 0x00, 0x1c, 0xd5, 0xff, 0xff, 0x00, 0x00, 0x0e, 0x00,
  0x14, 0x00, 0x00, 0x00, 0x08, 0x00, 0x0c, 0x00, 0x07, 0x00, 0x10, 0x00,
  0x0e, 0x00, 0x00, 0x00, 0x00, 0x00, 0x00, 0x01, 0x30, 0x00, 0x00, 0x00,
  0x24, 0x00, 0x00, 0x00, 0x10, 0x00, 0x00, 0x00, 0x0c, 0x00, 0x10, 0x00,
  0x00, 0x00, 0x04, 0x00, 0x08, 0x00, 0x0f, 0x00, 0x0c, 0x00, 0x00, 0x00,
  0x01, 0x00, 0x00, 0x00, 0x01, 0x00, 0x00, 0x00, 0x00, 0x00, 0x00, 0x01,
  0x01, 0x00, 0x00, 0x00, 0x0a, 0x00, 0x00, 0x00, 0x03, 0x00, 0x00, 0x00,
  0x00, 0x00, 0x00, 0x00, 0x08, 0x00, 0x00, 0x00, 0x01, 0x00, 0x00, 0x00,
  0x0c, 0x00, 0x10, 0x00, 0x0b, 0x00, 0x00, 0x00, 0x0c, 0x00, 0x04, 0x00,
  0x0c, 0x00, 0x00, 0x00, 0x03, 0x00, 0x00, 0x00, 0x00, 0x00, 0x00, 0x03,
  0x01, 0x00, 0x00, 0x00, 0xf0, 0xd4, 0xff, 0xff, 0x14, 0x00, 0x00, 0x00,
  0x0b, 0x00, 0x00, 0x00, 0x20, 0x00, 0x00, 0x00, 0xb0, 0x00, 0x00, 0x00,
  0x98, 0x00, 0x00, 0x00, 0x04, 0x00, 0x00, 0x00, 0x01, 0x00, 0x00, 0x00,
  0x40, 0x00, 0x00, 0x00, 0x03, 0x00, 0x00, 0x00, 0x08, 0x00, 0x00, 0x00,
  0x7b, 0x00, 0x00, 0x00, 0x73, 0x65, 0x71, 0x75, 0x65, 0x6e, 0x74, 0x69,
  0x61, 0x6c, 0x2f, 0x63, 0x6f, 0x6e, 0x76, 0x32, 0x64, 0x2f, 0x52, 0x65,
  0x6c, 0x75, 0x3b, 0x73, 0x65, 0x71, 0x75, 0x65, 0x6e, 0x74, 0x69, 0x61,
  0x6c, 0x2f, 0x63, 0x6f, 0x6e, 0x76, 0x32, 0x64, 0x2f, 0x42, 0x69, 0x61,
  0x73, 0x41, 0x64, 0x64, 0x3b, 0x73, 0x65, 0x71, 0x75, 0x65, 0x6e, 0x74,
  0x69, 0x61, 0x6c, 0x2f, 0x63, 0x6f, 0x6e, 0x76, 0x32, 0x64, 0x2f, 0x43,
  0x6f, 0x6e, 0x76, 0x32, 0x44, 0x3b, 0x73, 0x65, 0x71, 0x75, 0x65, 0x6e,
  0x74, 0x69, 0x61, 0x6c, 0x2f, 0x63, 0x6f, 0x6e, 0x76, 0x32, 0x64, 0x2f,
  0x42, 0x69, 0x61, 0x73, 0x41, 0x64, 0x64, 0x2f, 0x52, 0x65, 0x61, 0x64,
  0x56, 0x61, 0x72, 0x69, 0x61, 0x62, 0x6c, 0x65, 0x4f, 0x70, 0x2f, 0x72,
  0x65, 0x73, 0x6f, 0x75, 0x72, 0x63, 0x65, 0x00, 0x04, 0x00, 0x00, 0x00,
  0xff, 0xff, 0xff, 0xff, 0x40, 0x00, 0x00, 0x00, 0x03, 0x00, 0x00, 0x00,
  0x08, 0x00, 0x00, 0x00, 0x44, 0xd5, 0xff, 0xff, 0x4e, 0xd6, 0xff, 0xff,
  0x04, 0x00, 0x00, 0x00, 0x00, 0x08, 0x00, 0x00, 0x15, 0xa0, 0xc4, 0xbe,
  0xd4, 0x32, 0x29, 0x3e, 0x5a, 0x15, 0x9b, 0xbe, 0x33, 0x1a, 0xf9, 0x3c,
  0xf8, 0xdf, 0xa5, 0x3e, 0x36, 0x79, 0xc4, 0xbd, 0x74, 0x9d, 0x48, 0x3e,
  0x3d, 0x5b, 0x09, 0x3e, 0xf5, 0x22, 0xd4, 0xbe, 0x4a, 0x7b, 0xd6, 0xbc,
  0xc3, 0x96, 0xde, 0x3d, 0x1b, 0xe9, 0x62, 0xbd, 0x4a, 0xd8, 0x66, 0x3d,
  0xd6, 0xaa, 0x4b, 0xbe, 0x5d, 0x6c, 0xc8, 0xbe, 0x75, 0x47, 0x97, 0xbb,
  0x4f, 0x4b, 0x56, 0xbe, 0xc2, 0x41, 0x51, 0xbe, 0xaa, 0xdc, 0xac, 0xbe,
  0x9e, 0xc3, 0x86, 0xbd, 0xd8, 0xd6, 0x97, 0xbe, 0xb4, 0xb1, 0x3e, 0xbe,
  0x5f, 0x57, 0x18, 0xbe, 0xba, 0xa7, 0xd3, 0xbd, 0xcc, 0xe8, 0x4e, 0xbe,
  0x3d, 0x01, 0xf5, 0xbe, 0x9f, 0x5b, 0xcf, 0xbe, 0x8c, 0x0f, 0xb6, 0xbc,
  0x88, 0xcd, 0xb4, 0xbd, 0x70, 0x3a, 0xe2, 0xbd, 0x52, 0x39, 0xb6, 0xbd,
  0xa4, 0x3e, 0xde, 0xba, 0xe5, 0xce, 0x58, 0xbd, 0x6b, 0x89, 0x2d, 0xbe,
  0x96, 0x8f, 0x8e, 0x3c, 0xf3, 0xd1, 0xbc, 0xbe, 0xa0, 0x8e, 0x65, 0xbe,
  0x80, 0x7b, 0x2c, 0xbe, 0x5f, 0x88, 0x85, 0x3d, 0x74, 0xcd, 0x75, 0xbe,
  0x02, 0xbc, 0x80, 0x3c, 0x1d, 0x5d, 0x51, 0xbe, 0x15, 0x67, 0xbd, 0xbe,
  0x9f, 0xcc, 0x36, 0x3d, 0xd5, 0xa5, 0x04, 0xbd, 0x15, 0xbd, 0x8c, 0xbd,
  0xb7, 0xf9, 0x83, 0x3d, 0xed, 0x27, 0xc3, 0x3d, 0xb6, 0xa2, 0x90, 0x3d,
  0x18, 0x6d, 0x6a, 0xbe, 0x34, 0x9c, 0x7a, 0xbe, 0xed, 0xe3, 0x19, 0x3e,
  0xf4, 0x45, 0xce, 0xbd, 0x89, 0xf3, 0x53, 0xbe, 0x22, 0xf7, 0x04, 0x3a,
  0x01, 0x3f, 0x68, 0x3d, 0x6f, 0x8d, 0xd0, 0xbd, 0x83, 0x89, 0x30, 0xbd,
  0x42, 0x12, 0xb3, 0x3d, 0xf6, 0xcc, 0x63, 0xbd, 0xc6, 0x33, 0x9a, 0xbd,
  0xc7, 0xc1, 0x78, 0x3c, 0x3f, 0xfc, 0xba, 0x3d, 0x9e, 0x5b, 0x82, 0xbe,
  0x9d, 0xb5, 0xc4, 0xbd, 0xe6, 0x77, 0x53, 0xbe, 0x5d, 0xdd, 0x81, 0x3b,
  0x11, 0x48, 0xc7, 0xbe, 0xc7, 0x4f, 0xb7, 0xbe, 0xb4, 0xff, 0x65, 0xbe,
  0xea, 0x30, 0xc9, 0x3d, 0x9e, 0x33, 0xe9, 0xbd, 0x73, 0x1d, 0x01, 0x3d,
  0x78, 0xe8, 0x7a, 0xbe, 0x38, 0xe4, 0x5f, 0x3d, 0xb1, 0x91, 0x5b, 0xbe,
  0x67, 0xea, 0xb6, 0xbe, 0x63, 0x7d, 0x3d, 0xbe, 0x3b, 0x47, 0x53, 0x3b,
  0xfe, 0x23, 0x34, 0xbe, 0x54, 0xf1, 0xfb, 0x3c, 0x5a, 0xa2, 0xa1, 0xbe,
  0x87, 0xbe, 0x7d, 0x3d, 0xfc, 0xa2, 0xcf, 0xbd, 0x06, 0x08, 0x27, 0xbe,
  0x7c, 0xa4, 0xed, 0xbe, 0x40, 0x28, 0xab, 0x3e, 0x85, 0xc7, 0x4a, 0xbe,
  0x72, 0xa9, 0xf2, 0x3c, 0x28, 0xc8, 0x5a, 0xbd, 0x6a, 0x46, 0x15, 0x3e,
  0xa7, 0x2d, 0x33, 0xbe, 0x32, 0x92, 0xa8, 0xbd, 0x76, 0xfa, 0xb4, 0xbe,
  0xda, 0xd1, 0x8a, 0x3d, 0x97, 0xfa, 0xa4, 0xbe, 0x30, 0x47, 0x22, 0xbe,
  0x25, 0x32, 0xb9, 0xbe, 0x10, 0x38, 0x9e, 0xbe, 0x2b, 0x60, 0xa4, 0xbe,
  0xf4, 0xb5, 0x1e, 0xbf, 0x06, 0x40, 0x02, 0xbf, 0x9f, 0x48, 0x6d, 0xbf,
  0x43, 0xa7, 0xce, 0xbe, 0x5d, 0x6e, 0x53, 0xbd, 0x80, 0xf2, 0x60, 0xbe,
  0xb7, 0x0e, 0x97, 0x3d, 0xd8, 0x8c, 0x21, 0x3e, 0x78, 0x41, 0xf5, 0xbd,
  0xa1, 0x21, 0xdc, 0x3d, 0xd2, 0xc8, 0x9a, 0x3e, 0x10, 0xb3, 0x7a, 0x3d,
  0xf7, 0x8e, 0xc9, 0xbb, 0x2b, 0x22, 0x91, 0xbe, 0x1a, 0x8a, 0x17, 0x3e,
  0xe5, 0x85, 0x29, 0xbd, 0xe4, 0x45, 0x88, 0xbe, 0x88, 0x37, 0xc0, 0xbc,
  0x35, 0x29, 0x74, 0xbe, 0x55, 0x99, 0xf8, 0x3c, 0x25, 0x04, 0xa4, 0xbd,
  0x5a, 0x2d, 0x98, 0xbe, 0x7d, 0x93, 0x02, 0x3d, 0xa5, 0x5c, 0x28, 0x3c,
  0x08, 0x40, 0xa5, 0xbd, 0x60, 0xad, 0xac, 0xbc, 0xbb, 0x30, 0x25, 0xbd,
  0x44, 0x51, 0x21, 0xbd, 0x17, 0x35, 0x88, 0x3d, 0x1b, 0xd4, 0x19, 0xbe,
  0xf5, 0x72, 0x23, 0x3f, 0xea, 0x5a, 0x07, 0x3e, 0x14, 0x42, 0x3b, 0xbe,
  0xbe, 0x97, 0x1c, 0xbe, 0xcb, 0xb6, 0xfc, 0x3d, 0x2a, 0x98, 0x52, 0x3c,
  0xe5, 0x80, 0x6b, 0x3d, 0xa4, 0x06, 0x1c, 0xbe, 0xd1, 0x93, 0x77, 0xbd,
  0x2b, 0x9d, 0x95, 0x3c, 0x81, 0x70, 0x86, 0xbc, 0x71, 0xf7, 0x34, 0xbe,
  0x86, 0x38, 0x15, 0xbf, 0x63, 0xaa, 0x6d, 0xbd, 0x49, 0x69, 0xa1, 0xbd,
  0x8d, 0xf4, 0x51, 0xbe, 0xbc, 0xfe, 0x96, 0x3c, 0x9f, 0x3a, 0xba, 0x3d,
  0x02, 0xf8, 0xc3, 0x3c, 0xe4, 0xbc, 0xca, 0xbd, 0xc3, 0x9c, 0x39, 0xbd,
  0xc3, 0x4e, 0x64, 0xbd, 0xd3, 0x39, 0x53, 0xbe, 0x37, 0x4d, 0x95, 0xbe,
  0xc0, 0x6a, 0x6a, 0xbc, 0xd4, 0x44, 0x5d, 0x3d, 0xb2, 0x51, 0x07, 0xbe,
  0xd7, 0x48, 0x15, 0xbd, 0x72, 0x37, 0x83, 0x3e, 0x28, 0x86, 0x1b, 0xbe,
  0xa2, 0x2b, 0xdc, 0xbd, 0x7f, 0xb0, 0x61, 0x3e, 0xdd, 0x2c, 0x90, 0x3e,
  0xa7, 0x06, 0x08, 0xbe, 0x8d, 0x21, 0x69, 0x3d, 0xb1, 0x42, 0x51, 0xbc,
  0x98, 0x49, 0x8c, 0x3e, 0x89, 0x24, 0x58, 0xbe, 0x6c, 0xba, 0xaf, 0xbe,
  0x75, 0xbb, 0x2f, 0xbe, 0xa2, 0xa9, 0x30, 0xbf, 0xc6, 0xee, 0x93, 0xbd,
  0x34, 0x88, 0xb6, 0xbd, 0x1e, 0x4f, 0xc1, 0x3e, 0x47, 0xa4, 0x72, 0x3b,
  0x7b, 0xe8, 0x64, 0xbe, 0x4d, 0x91, 0x87, 0xbe, 0xb8, 0x1e, 0xfc, 0xbd,
  0xb5, 0x4a, 0xb5, 0xbe, 0x59, 0x51, 0xce, 0xba, 0x42, 0x86, 0x30, 0xbe,
  0xba, 0xeb, 0xbc, 0xbd, 0x20, 0x82, 0x79, 0xbd, 0xf0, 0x5f, 0xea, 0xbc,
  0x66, 0x24, 0x09, 0x3d, 0x13, 0x29, 0x54, 0xbc, 0x5b, 0x96, 0xc7, 0xbe,
  0xbb, 0xc0, 0x16, 0xbc, 0xe2, 0xbf, 0xce, 0x3c, 0x63, 0x5d, 0x6e, 0xbd,
  0xd0, 0x67, 0x6d, 0xbd, 0x23, 0x2f, 0x24, 0x3e, 0x58, 0x78, 0xa4, 0xbe,
  0x19, 0x06, 0x9e, 0xbe, 0x30, 0x40, 0x87, 0xbe, 0xe5, 0x32, 0x86, 0x3a,
  0x74, 0x59, 0x20, 0xbe, 0xd3, 0xa2, 0xd3, 0xbc, 0xa2, 0xc0, 0xfb, 0x3d,
  0xf0, 0xd7, 0x2d, 0xbd, 0x87, 0x00, 0x0e, 0xbf, 0x2d, 0x25, 0xaf, 0x3e,
  0x53, 0x1a, 0x9f, 0xbe, 0x5e, 0x42, 0x8c, 0xbc, 0x2d, 0x98, 0x4b, 0xbe,
  0xb9, 0x45, 0x2b, 0xbd, 0xab, 0xf0, 0x37, 0x3e, 0x56, 0x94, 0x95, 0x3e,
  0xf9, 0xdd, 0x03, 0xbf, 0xc5, 0xad, 0x77, 0x3c, 0xc6, 0xcc, 0x4f, 0xbe,
  0xda, 0xbc, 0x84, 0xbd, 0x50, 0xf8, 0xf6, 0x3e, 0x0c, 0x5e, 0xf8, 0xbd,
  0x29, 0x46, 0x87, 0x3d, 0xe2, 0xe9, 0xa6, 0xbd, 0xa7, 0x8f, 0x08, 0xbe,
  0x73, 0xdd, 0x96, 0xbd, 0x4b, 0x58, 0x99, 0xbc, 0xea, 0x2b, 0x77, 0xbd,
  0xde, 0xcf, 0xc1, 0x3e, 0x4c, 0xe4, 0x02, 0xbe, 0x92, 0x20, 0x91, 0xbd,
  0x55, 0x24, 0xc4, 0xbd, 0xa0, 0xa4, 0x0d, 0x3d, 0xa7, 0xe6, 0x36, 0xbe,
  0xce, 0x11, 0x53, 0x3c, 0x7c, 0x94, 0xa5, 0xbe, 0x25, 0x8e, 0xce, 0x3d,
  0x16, 0x75, 0x5d, 0xbd, 0x88, 0x1a, 0x79, 0xbe, 0x13, 0x54, 0xaf, 0xbd,
  0x94, 0x32, 0x50, 0x3d, 0x70, 0x29, 0x7e, 0x3e, 0xe8, 0x24, 0xb6, 0xbb,
  0x81, 0x57, 0xe1, 0xbe, 0x1c, 0x21, 0xaa, 0xbd, 0xe2, 0x3a, 0x0c, 0xbd,
  0x30, 0xfe, 0xff, 0xbd, 0xd4, 0xcf, 0xce, 0xbc, 0xaf, 0x3c, 0x00, 0xbd,
  0x4e, 0xf2, 0x55, 0x3e, 0x34, 0xef, 0xec, 0xbd, 0x1f, 0x6d, 0x4f, 0xbe,
  0x92, 0x8b, 0xa4, 0xbc, 0xb6, 0x61, 0x5e, 0x3e, 0x33, 0xc6, 0xa1, 0x3e,
  0x16, 0xa2, 0x09, 0xbe, 0x3b, 0x79, 0xc5, 0xbe, 0xe0, 0xa2, 0x85, 0xbe,
  0x54, 0x7a, 0x17, 0xbf, 0xcf, 0x27, 0x2e, 0x3d, 0xc8, 0x4a, 0x65, 0xbe,
  0xed, 0x6e, 0x58, 0x3d, 0x7f, 0xdd, 0xbe, 0x3e, 0x85, 0x41, 0xad, 0x3c,
  0x5a, 0xc6, 0x7a, 0xbf, 0x50, 0x03, 0x42, 0xbe, 0xb4, 0x70, 0xe0, 0xbe,
  0x0f, 0x5a, 0xc9, 0x3d, 0xe0, 0x34, 0xd6, 0x3e, 0xe7, 0xcc, 0xa2, 0xbe,
  0x40, 0x22, 0xc9, 0x3e, 0x7a, 0x60, 0x7f, 0x3d, 0xd4, 0x1f, 0x91, 0xbf,
  0x13, 0xee, 0x42, 0xbe, 0xb3, 0x04, 0x64, 0xbe, 0x66, 0xee, 0x02, 0x3e,
  0x2a, 0x58, 0xcf, 0x3d, 0xc8, 0x4d, 0xda, 0xbe, 0xc5, 0xd7, 0x35, 0xbe,
  0x97, 0x63, 0x06, 0xbe, 0x9f, 0xa2, 0x82, 0xbe, 0xab, 0x75, 0xf5, 0x3d,
  0x12, 0x0b, 0x97, 0x3d, 0xc0, 0x75, 0x22, 0xbe, 0xde, 0xe6, 0xdf, 0x3c,
  0x86, 0x64, 0x6c, 0xbe, 0xa2, 0xc6, 0x20, 0xbe, 0x47, 0xc6, 0x13, 0xbe,
  0x29, 0xf7, 0x39, 0x3e, 0x14, 0x76, 0x10, 0x3e, 0xe1, 0x45, 0xfb, 0x3e,
  0xff, 0xba, 0x89, 0xbe, 0xa6, 0x27, 0x00, 0x3e, 0x31, 0x75, 0x10, 0xbe,
  0x22, 0x79, 0x81, 0xbe, 0x25, 0xd4, 0x73, 0x3d, 0x8f, 0x9f, 0x5f, 0x3c,
  0x4e, 0xf1, 0x96, 0x3e, 0xa1, 0xc6, 0xd3, 0x3e, 0xf5, 0xbf, 0xa0, 0xbe,
  0x01, 0x28, 0xae, 0xbe, 0x99, 0xc1, 0x19, 0x3e, 0x7b, 0x6c, 0x99, 0x3d,
  0x1b, 0x14, 0x2d, 0xbe, 0x82, 0x8c, 0xe1, 0xbe, 0x98, 0xd2, 0x80, 0xbd,
  0x94, 0xc2, 0x92, 0xbe, 0xfa, 0x68, 0xfa, 0xbd, 0x3d, 0x60, 0x95, 0xbe,
  0xda, 0xe3, 0xca, 0x3c, 0x55, 0xd3, 0x73, 0x3d, 0x47, 0x4c, 0x11, 0xbe,
  0x81, 0x1a, 0x53, 0xbe, 0x8d, 0x27, 0xa9, 0xbd, 0xc9, 0x02, 0x7e, 0xbe,
  0xec, 0x04, 0x5a, 0xbb, 0x29, 0x63, 0x9a, 0xbd, 0x43, 0xce, 0x46, 0x3d,
  0x96, 0x74, 0xe1, 0xbc, 0x56, 0xa6, 0x13, 0x3e, 0xe6, 0xc9, 0xec, 0xbd,
  0xa9, 0x82, 0x8a, 0xbe, 0x43, 0x37, 0x83, 0xbe, 0x87, 0x9c, 0x2e, 0xbc,
  0xea, 0x94, 0x8a, 0xbd, 0x70, 0x45, 0x9f, 0xbd, 0x33, 0x7e, 0xea, 0x3d,
  0x2d, 0x0e, 0xd8, 0x3d, 0x1e, 0xfc, 0x39, 0xbe, 0xa7, 0x3c, 0xcb, 0xbd,
  0xe9, 0xee, 0x00, 0x3d, 0x86, 0x50, 0xc3, 0xbd, 0x7d, 0x93, 0x60, 0x3e,
  0x5f, 0x2b, 0x7c, 0x3e, 0xe4, 0x6a, 0x2c, 0x3e, 0x58, 0x65, 0xb9, 0xbe,
  0x81, 0x6d, 0xef, 0xbd, 0x1e, 0x9a, 0xd4, 0xbd, 0x6a, 0x05, 0xa0, 0x3e,
  0x66, 0xe2, 0x03, 0xbe, 0xb1, 0xd5, 0xfa, 0xbb, 0x49, 0x55, 0x30, 0xbe,
  0x1e, 0xe1, 0x70, 0x3e, 0x1e, 0xd1, 0xee, 0xbe, 0x28, 0xdf, 0x1f, 0x3d,
  0x4a, 0x85, 0xc3, 0xbc, 0xe4, 0xd6, 0xee, 0xbd, 0xae, 0x33, 0x94, 0x3c,
  0xc5, 0x31, 0xbe, 0x3c, 0xcd, 0x10, 0x88, 0x3d, 0xac, 0x5d, 0xb7, 0x3d,
  0x6c, 0x32, 0xd8, 0xbe, 0xfb, 0xa0, 0x91, 0xbd, 0x95, 0xf9, 0x2f, 0xbd,
  0x8d, 0x23, 0xf3, 0x3d, 0x28, 0x0b, 0xb6, 0xbd, 0x13, 0x5a, 0x40, 0x3e,
  0x67, 0x54, 0x13, 0xbd, 0xb8, 0xad, 0x8e, 0x3e, 0x86, 0xa5, 0xe3, 0xbe,
  0x2b, 0x7b, 0x88, 0xbf, 0x67, 0x05, 0x8e, 0xbe, 0xda, 0xad, 0x30, 0xbf,
  0x87, 0xdb, 0x0c, 0xbe, 0x0c, 0x89, 0xc2, 0xbe, 0x9c, 0xca, 0x1d, 0xbe,
  0x3b, 0x09, 0xc0, 0xbd, 0xb9, 0x9a, 0x4e, 0xbe, 0xf3, 0xc6, 0x14, 0xbe,
  0xe1, 0xf2, 0x81, 0xbd, 0x7f, 0x13, 0x2c, 0xbe, 0x2c, 0x06, 0x35, 0x3b,
  0x60, 0x7d, 0x5c, 0x3d, 0x51, 0x60, 0x2d, 0x3d, 0x5a, 0x49, 0x14, 0x3e,
  0xd6, 0xf0, 0xc4, 0x3d, 0x2e, 0x13, 0x5e, 0xbc, 0x4c, 0x1a, 0x80, 0x3c,
  0xe3, 0x09, 0x4c, 0xbe, 0x1a, 0x50, 0xb7, 0x3d, 0x49, 0xb3, 0x12, 0x3e,
  0x6a, 0x8c, 0x74, 0xbc, 0x2b, 0x67, 0x4c, 0xbe, 0x76, 0x7a, 0x13, 0x3e,
  0xaf, 0xcb, 0x27, 0xbd, 0x38, 0xef, 0xdf, 0x3d, 0x57, 0x50, 0x71, 0xbe,
  0xf1, 0x2f, 0xc3, 0xbc, 0x40, 0x04, 0x07, 0x3e, 0xe9, 0xc3, 0xb5, 0x3b,
  0x09, 0x12, 0xf8, 0xbc, 0xd4, 0x06, 0x3d, 0x3d, 0xa9, 0x23, 0xee, 0x3c,
  0x01, 0x80, 0x5e, 0xbe, 0x59, 0x49, 0x73, 0xbc, 0xe3, 0x4c, 0xdf, 0xbe,
  0xe5, 0x5e, 0xf0, 0x3d, 0x2a, 0xe3, 0xc3, 0xbc, 0x10, 0x7a, 0xb9, 0xbe,
  0xac, 0x63, 0xd8, 0xbd, 0xc4, 0x20, 0x67, 0x3e, 0x00, 0x32, 0xb8, 0x3b,
  0xbd, 0xe5, 0x9c, 0x3e, 0xc6, 0x25, 0xf1, 0xbe, 0x04, 0xc6, 0x79, 0x3e,
  0x0e, 0x26, 0x35, 0x3d, 0xd5, 0xea, 0x09, 0xbe, 0xae, 0x65, 0xdb, 0xbc,
  0x4a, 0xf9, 0xde, 0xbc, 0x0d, 0xd8, 0xc3, 0x3d, 0xb8, 0x1b, 0x80, 0x3c,
  0xeb, 0xf9, 0xea, 0xbe, 0x1b, 0x56, 0xa7, 0xbe, 0x6b, 0xb7, 0x5c, 0x3e,
  0x6c, 0xc4, 0x90, 0x3e, 0x53, 0x1d, 0xf8, 0xbd, 0xca, 0x75, 0xbe, 0xbe,
  0x39, 0x6f, 0x72, 0xbd, 0x29, 0xee, 0x47, 0xbe, 0xdd, 0xbe, 0x71, 0xbd,
  0x84, 0x22, 0x89, 0xbe, 0x4e, 0xf1, 0x89, 0x3d, 0x40, 0x15, 0x9d, 0x3e,
  0xe1, 0x12, 0x5d, 0xbe, 0x73, 0x88, 0x48, 0xbe, 0x2d, 0xe2, 0xa0, 0x3e,
  0xcf, 0x2e, 0xb1, 0xbe, 0x26, 0x27, 0xba, 0x3c, 0x44, 0x8b, 0x1e, 0x3e,
  0x28, 0xf1, 0x40, 0xbd, 0x77, 0xdf, 0xed, 0x3c, 0x0b, 0xe4, 0x22, 0x3e,
  0xb3, 0x50, 0x1f, 0xbf, 0x0d, 0xe9, 0x14, 0x3c, 0xdf, 0x2f, 0x2c, 0xbf,
  0x83, 0x06, 0x43, 0xbd, 0xb3, 0xa7, 0x21, 0x3e, 0x8f, 0x2e, 0x82, 0xbe,
  0x96, 0x35, 0x50, 0xbd, 0x37, 0x41, 0x91, 0x3e, 0x56, 0xff, 0x9b, 0xbf,
  0x18, 0x67, 0x5d, 0xbe, 0xec, 0xb9, 0xa4, 0xbe, 0x64, 0x16, 0xcc, 0xbc,
  0x4a, 0x26, 0x2e, 0x3e, 0xd1, 0xa4, 0xa1, 0xbe, 0x33, 0x5b, 0xe8, 0x3d,
  0xfa, 0x03, 0x3a, 0xbd, 0x57, 0x30, 0xd4, 0xbe, 0x25, 0x7f, 0xad, 0x3c,
  0x7b, 0x0c, 0x0a, 0x3f, 0x21, 0x70, 0x85, 0xbd, 0x8f, 0xfc, 0x37, 0x3e,
  0x09, 0x59, 0x80, 0xbe, 0x81, 0x44, 0x1f, 0xbe, 0x8b, 0x05, 0x24, 0xbe,
  0xd9, 0xda, 0xa9, 0xbc, 0x88, 0x7a, 0xfc, 0xbb, 0x08, 0x7a, 0x0a, 0x3f,
  0x50, 0x04, 0x03, 0x3e, 0xa5, 0x46, 0xb5, 0xbd, 0xea, 0x07, 0x14, 0xbe,
  0x15, 0x12, 0xfd, 0x3d, 0xb4, 0xfc, 0xf4, 0x3c, 0x43, 0xfd, 0xf7, 0xbd,
  0xa7, 0xb6, 0x19, 0xbe, 0xcb, 0xea, 0x52, 0xbd, 0xa2, 0x4b, 0xa2, 0xbc,
  0xbc, 0xf1, 0x08, 0x3e, 0x12, 0x88, 0x14, 0xbe, 0xaa, 0xb6, 0x25, 0xbc,
  0x9a, 0xe6, 0x9d, 0xbd, 0xf9, 0xa1, 0x94, 0xbd, 0x90, 0xd6, 0x72, 0x3c,
  0x4c, 0xdd, 0x05, 0x3e, 0x2d, 0x0d, 0x5e, 0xbd, 0xb1, 0xa0, 0x8a, 0x3d,
  0xc7, 0x7b, 0xed, 0xbd, 0x05, 0xfa, 0x82, 0x3d, 0x7e, 0x1d, 0x34, 0xbe,
  0x71, 0x41, 0xf8, 0xbd, 0x90, 0xe8, 0x05, 0xbd, 0x5a, 0xe8, 0x3b, 0x3e,
  0xef, 0x05, 0x35, 0xbe, 0x3c, 0x97, 0xee, 0x3d, 0xe0, 0xd8, 0xd1, 0xbd,
  0xab, 0x88, 0x3a, 0x3e, 0x04, 0xb7, 0x5c, 0xbe, 0x6a, 0x06, 0x8f, 0xbd,
  0x1e, 0xff, 0x3a, 0xbe, 0x1f, 0xd1, 0xbb, 0x3d, 0x66, 0x19, 0x52, 0x3e,
  0xa3, 0x3f, 0x39, 0x3e, 0xe8, 0x00, 0x97, 0x3d, 0x57, 0x43, 0x61, 0x3e,
  0xbc, 0x8c, 0x0e, 0xbe, 0xfc, 0x53, 0x18, 0xbe, 0x0d, 0x5e, 0xec, 0xbd,
  0x2c, 0xcb, 0xba, 0x3c, 0x01, 0xc5, 0x25, 0xbc, 0x12, 0xbf, 0xbd, 0xbc,
  0x9a, 0xc8, 0xa5, 0x3d, 0x94, 0x4f, 0x9f, 0xbd, 0x10, 0x3a, 0x46, 0xbe,
  0xb3, 0x59, 0x5b, 0xbe, 0x40, 0x1c, 0xe2, 0xbd, 0xe5, 0x17, 0x49, 0x3d,
  0xfd, 0x3f, 0x54, 0xbd, 0xb6, 0x7b, 0x41, 0xbd, 0x47, 0x19, 0x94, 0xbd,
  0x73, 0x88, 0xa9, 0x3c, 0xa4, 0xd0, 0x5e, 0xbe, 0xfc, 0xad, 0x70, 0xbd,
  0xe1, 0x78, 0x47, 0x3e, 0x7d, 0x51, 0x6d, 0x3e, 0x66, 0x39, 0xbf, 0xbd,
  0xf1, 0x20, 0xc9, 0x3d, 0x26, 0x41, 0x0d, 0xbc, 0x25, 0xf5, 0x9d, 0xbc,
  0x51, 0x8f, 0xba, 0xbd, 0x26, 0xde, 0xff, 0xff, 0x10, 0x00, 0x00, 0x00,
  0x0a, 0x00, 0x00, 0x00, 0x1c, 0x00, 0x00, 0x00, 0x38, 0x00, 0x00, 0x00,
  0x04, 0x00, 0x00, 0x00, 0x10, 0x00, 0x00, 0x00, 0x04, 0x00, 0x00, 0x00,
  0x01, 0x00, 0x00, 0x00, 0x08, 0x00, 0x00, 0x00, 0x1a, 0x00, 0x00, 0x00,
  0x73, 0x65, 0x71, 0x75, 0x65, 0x6e, 0x74, 0x69, 0x61, 0x6c, 0x2f, 0x63,
  0x6f, 0x6e, 0x76, 0x32, 0x64, 0x5f, 0x31, 0x2f, 0x43, 0x6f, 0x6e, 0x76,
  0x32, 0x44, 0x00, 0x00, 0x9c, 0xdd, 0xff, 0xff, 0xa6, 0xde, 0xff, 0xff,
  0x04, 0x00, 0x00, 0x00, 0x80, 0x01, 0x00, 0x00, 0xb4, 0xb3, 0x31, 0xbe,
  0xd1, 0x47, 0xed, 0xbd, 0xee, 0xcf, 0x91, 0xbd, 0xf5, 0x17, 0x42, 0x3c,
  0x47, 0xdb, 0x91, 0x3d, 0xe6, 0x4d, 0x3b, 0xbd, 0x9c, 0xe0, 0x7a, 0xbe,
  0xfc, 0x19, 0x1a, 0x3e, 0x6c, 0x82, 0x0f, 0xbe, 0xc0, 0x09, 0x96, 0xbe,
  0x12, 0x6f, 0x55, 0xbe, 0xb4, 0x42, 0x3c, 0xbd, 0xc8, 0x35, 0x5a, 0xbb,
  0x97, 0x95, 0x46, 0x3d, 0x9b, 0xdc, 0xe3, 0xbe, 0xf2, 0x58, 0x97, 0x3d,
  0xb7, 0xef, 0xc4, 0x3b, 0x89, 0x94, 0x8e, 0xbe, 0x11, 0x2f, 0xcd, 0x3d,
  0x4d, 0x39, 0x13, 0xbd, 0xc3, 0x28, 0x06, 0x3e, 0xbd, 0x8f, 0x20, 0xbe,
  0x1e, 0x9e, 0x78, 0xbd, 0x27, 0xcb, 0x2f, 0x3e, 0xaf, 0xf6, 0x98, 0x3e,
  0x74, 0xbe, 0xd0, 0xbe, 0x49, 0xd3, 0xe8, 0xbd, 0x0c, 0xe3, 0xf8, 0xbe,
  0xf7, 0x39, 0x9c, 0xbd, 0xd0, 0x22, 0x7b, 0x3e, 0x10, 0x00, 0x1c, 0x3d,
  0x6f, 0x30, 0xb0, 0xbd, 0x2b, 0x55, 0x9c, 0xbe, 0xd8, 0x54, 0x6b, 0xbe,
  0x56, 0x4c, 0x24, 0xbe, 0x75, 0xc7, 0x4a, 0xbe, 0xe1, 0xdb, 0x25, 0xbd,
  0x2e, 0xee, 0xbe, 0xbc, 0x27, 0x7d, 0x7e, 0x3e, 0x58, 0xe7, 0xaf, 0xbd,
  0x68, 0xe8, 0xf5, 0x3c, 0x63, 0x0c, 0x6d, 0xbc, 0x02, 0x93, 0x28, 0x3d,
  0xfb, 0xb4, 0xe2, 0x3b, 0xd8, 0x89, 0x1f, 0x3d, 0x8f, 0x7c, 0xe5, 0xbc,
  0x4a, 0x22, 0x40, 0xbd, 0xfb, 0xe5, 0x8e, 0x3d, 0x5e, 0xba, 0x8b, 0xbe,
  0xfe, 0x0b, 0xa4, 0x3e, 0x44, 0xea, 0xc2, 0x3e, 0xf0, 0x1b, 0x6f, 0x3e,
  0xba, 0xed, 0xf0, 0xbd, 0xe6, 0x8d, 0x9c, 0x3d, 0xe0, 0xc1, 0x91, 0x3d,
  0x53, 0x80, 0x91, 0xba, 0x44, 0xb1, 0x9a, 0xbe, 0x5e, 0xe8, 0x88, 0xbd,
  0x7f, 0x64, 0xec, 0xbd, 0xc1, 0x54, 0xae, 0xbe, 0x1d, 0xc2, 0x81, 0x3e,
  0x2a, 0xb7, 0x5b, 0xbe, 0x57, 0x4f, 0xb3, 0xbe, 0x06, 0xc4, 0x1a, 0xbd,
  0x3b, 0x37, 0x33, 0x3e, 0x8e, 0xf6, 0x0d, 0xbe, 0x1e, 0xf6, 0x90, 0xbd,
  0xe0, 0x34, 0x75, 0x3d, 0xe1, 0xbd, 0x04, 0x3e, 0x8c, 0x08, 0x77, 0xbe,
  0xbb, 0x73, 0x73, 0x3e, 0x58, 0x2c, 0xfc, 0x3d, 0xc3, 0x57, 0x19, 0x3d,
  0xa3, 0x5e, 0x0c, 0x3e, 0x8d, 0x06, 0x95, 0xbe, 0xe5, 0x00, 0xa4, 0xbc,
  0x56, 0xaa, 0x2b, 0xbe, 0xf0, 0xee, 0x27, 0x3e, 0xdb, 0x17, 0xa0, 0x3c,
  0xf5, 0x77, 0x75, 0x3e, 0x6b, 0x50, 0x03, 0x3e, 0x69, 0x95, 0xe1, 0xbc,
  0x11, 0xbb, 0x4f, 0xbe, 0xd0, 0xa7, 0x0f, 0x3d, 0xb1, 0x79, 0xb1, 0xbc,
  0x8d, 0x8b, 0x72, 0xbe, 0xb2, 0xad, 0x14, 0x3d, 0x7c, 0x0e, 0x02, 0xbd,
  0xd8, 0xef, 0x43, 0xbe, 0xf6, 0x6d, 0xb5, 0x3d, 0x2e, 0xaa, 0x9e, 0xbd,
  0xe8, 0x35, 0xca, 0xbd, 0x39, 0xf6, 0xa3, 0x3d, 0x93, 0xdb, 0x61, 0xbe,
  0xfb, 0x37, 0xde, 0xbc, 0xc9, 0x69, 0xcb, 0x3d, 0xfe, 0xdf, 0xff, 0xff,
  0x10, 0x00, 0x00, 0x00, 0x09, 0x00, 0x00, 0x00, 0x1c, 0x00, 0x00, 0x00,
  0x38, 0x00, 0x00, 0x00, 0x04, 0x00, 0x00, 0x00, 0x08, 0x00, 0x00, 0x00,
  0x04, 0x00, 0x00, 0x00, 0x03, 0x00, 0x00, 0x00, 0x01, 0x00, 0x00, 0x00,
  0x18, 0x00, 0x00, 0x00, 0x73, 0x65, 0x71, 0x75, 0x65, 0x6e, 0x74, 0x69,
  0x61, 0x6c, 0x2f, 0x63, 0x6f, 0x6e, 0x76, 0x32, 0x64, 0x2f, 0x43, 0x6f,
  0x6e, 0x76, 0x32, 0x44, 0x00, 0x00, 0x00, 0x00, 0x74, 0xdf, 0xff, 0xff,
  0x7e, 0xe0, 0xff, 0xff, 0x04, 0x00, 0x00, 0x00, 0xc0, 0x00, 0x00, 0x00,
  0x15, 0x1e, 0x90, 0xbc, 0x38, 0xde, 0x95, 0x3e, 0x08, 0xa5, 0x02, 0xbe,
  0x3a, 0x5b, 0xa0, 0xbe, 0x1f, 0xc8, 0x1e, 0x3e, 0xe7, 0xa9, 0xc2, 0xbd,
  0x11, 0x33, 0x07, 0x3e, 0x0e, 0x39, 0x95, 0xbe, 0x07, 0x4e, 0xe9, 0xbd,
  0x01, 0x61, 0xf1, 0xbd, 0x57, 0x4e, 0x39, 0x3d, 0xac, 0x69, 0x81, 0xbe,
  0x42, 0x9c, 0x8e, 0xbe, 0x29, 0xef, 0xd0, 0x3e, 0xe6, 0x8e, 0x4d, 0xbd,
  0xcd, 0xeb, 0x61, 0x3e, 0xc7, 0xc2, 0x57, 0x3d, 0x9d, 0xbd, 0xa5, 0x3e,
  0x02, 0x98, 0xf0, 0xbd, 0x0c, 0xe6, 0xae, 0xbe, 0xa4, 0x4f, 0x1b, 0xbf,
  0x3c, 0x13, 0x5f, 0xbb, 0x53, 0x6b, 0x18, 0x3e, 0x39, 0x24, 0xce, 0xbe,
  0x04, 0x2c, 0x83, 0xbd, 0x43, 0xfa, 0xd1, 0xbd, 0x9c, 0xeb, 0x1e, 0x3e,
  0x4b, 0x3d, 0x50, 0xbe, 0x53, 0xc7, 0x83, 0xbe, 0xe8, 0x7b, 0xc8, 0x3e,
  0x19, 0x73, 0x77, 0xbd, 0xd5, 0x85, 0x47, 0x3e, 0xc0, 0x17, 0xf3, 0xbc,
  0x99, 0x21, 0x89, 0x3e, 0xe8, 0xa0, 0x9c, 0xbd, 0xca, 0xc0, 0xb7, 0xbe,
  0x9c, 0xea, 0xf0, 0xbd, 0xb7, 0xd7, 0x3d, 0xbe, 0x2b, 0xe4, 0xdb, 0x3d,
  0x0c, 0x0a, 0x85, 0xbe, 0x5f, 0x47, 0x13, 0xbe, 0x25, 0x7a, 0x48, 0xbe,
  0x80, 0xe4, 0x0c, 0x3e, 0x8d, 0xf2, 0x35, 0xbe, 0xc6, 0x86, 0x69, 0xbe,
  0x9d, 0x47, 0xaf, 0x3e, 0x3e, 0xf8, 0xa2, 0xbd, 0x52, 0x65, 0xdd, 0x3d,
  0x16, 0xe1, 0xff, 0xff, 0x10, 0x00, 0x00, 0x00, 0x08, 0x00, 0x00, 0x00,
  0x14, 0x00, 0x00, 0x00, 0x30, 0x00, 0x00, 0x00, 0x02, 0x00, 0x00, 0x00,
  0x03, 0x00, 0x00, 0x00, 0x10, 0x00, 0x00, 0x00, 0x19, 0x00, 0x00, 0x00,
  0x73, 0x65, 0x71, 0x75, 0x65, 0x6e, 0x74, 0x69, 0x61, 0x6c, 0x2f, 0x64,
  0x65, 0x6e, 0x73, 0x65, 0x5f, 0x31, 0x2f, 0x4d, 0x61, 0x74, 0x4d, 0x75,
  0x6c, 0x00, 0x00, 0x00, 0x84, 0xe0, 0xff, 0xff, 0x8e, 0xe1, 0xff, 0xff,
  0x04, 0x00, 0x00, 0x00, 0x00, 0x1c, 0x00, 0x00, 0x98, 0xc5, 0xa4, 0x3d,
  0x88, 0x2a, 0xa6, 0x3d, 0x35, 0xd3, 0x9b, 0xbc, 0x2c, 0x74, 0xa7, 0xbe,
  0xd6, 0x3e, 0xfe, 0xb9, 0x60, 0xdf, 0x35, 0xbf, 0x3e, 0x75, 0x1c, 0xbf,
  0x29, 0x3b, 0xc0, 0xbe, 0x1d, 0x27, 0xfa, 0xbc, 0x76, 0xc1, 0xe3, 0xbe,
  0x92, 0x20, 0xeb, 0xbd, 0x08, 0x7f, 0x26, 0xbe, 0x67, 0x0a, 0x1f, 0xbd,
  0xf8, 0xbc, 0x30, 0xbe, 0x58, 0x56, 0x10, 0xbc, 0x25, 0xdc, 0x1a, 0xbe,
  0x5f, 0x8f, 0xe1, 0xbd, 0x77, 0x0f, 0x45, 0xbe, 0x57, 0x9d, 0x62, 0x3e,
  0x26, 0x24, 0x5d, 0xbe, 0x82, 0x7f, 0xd6, 0x3c, 0xb5, 0x9a, 0x06, 0xbf,
  0xce, 0x6c, 0xe6, 0xbe, 0x49, 0x13, 0xcf, 0x3d, 0xea, 0xad, 0xb5, 0xbc,
  0xa0, 0x78, 0xca, 0x3d, 0x7f, 0x30, 0xe3, 0xbd, 0xc7, 0x58, 0x15, 0xbf,
  0xbc, 0x5f, 0xb8, 0x3d, 0x2f, 0x51, 0xfa, 0xbe, 0x14, 0x2b, 0xe0, 0x3c,
  0x7b, 0x76, 0xf4, 0xbe, 0x9e, 0xfb, 0x23, 0xbc, 0x93, 0xa9, 0x4f, 0x3d,
  0x08, 0xba, 0x82, 0x3e, 0xd2, 0x45, 0xa8, 0x3d, 0x7d, 0xd3, 0x8f, 0xbd,
  0x0d, 0xb0, 0x4b, 0x3d, 0xdb, 0x50, 0x82, 0xbc, 0x07, 0x49, 0x15, 0x3e,
  0x95, 0x10, 0x73, 0xbe, 0x29, 0x66, 0x39, 0x3e, 0xaf, 0xc0, 0x04, 0xbe,
  0x24, 0x74, 0xd0, 0xbd, 0xf0, 0x62, 0x18, 0x3e, 0x9c, 0x57, 0x9f, 0xbe,
  0x9f, 0x5c, 0xa2, 0x3d, 0x89, 0x0b, 0x06, 0xbf, 0xfd, 0x55, 0xdf, 0xbc,
  0x74, 0x5c, 0x37, 0x3e, 0xb0, 0x96, 0x89, 0x3e, 0x66, 0x60, 0xe4, 0xbd,
  0x5c, 0x7b, 0x0c, 0xbe, 0x8c, 0xa3, 0x4b, 0x3d, 0x01, 0xae, 0x87, 0x3d,
  0xe7, 0x23, 0x73, 0x3e, 0xe2, 0xb6, 0x3c, 0x3b, 0xb8, 0x3a, 0xff, 0x3d,
  0x20, 0x76, 0x5c, 0xbe, 0x87, 0x93, 0x1f, 0x3e, 0x6a, 0x73, 0x4e, 0x3e,
  0x36, 0xdb, 0xa3, 0xbd, 0xb0, 0x2f, 0x19, 0xb9, 0x0e, 0xb2, 0xc0, 0xbe,
  0x31, 0x41, 0x13, 0xbd, 0x96, 0xf1, 0x94, 0xbd, 0x38, 0x6f, 0xb9, 0x3b,
  0x23, 0xc1, 0xd1, 0xbd, 0x0e, 0x02, 0x64, 0x3c, 0x00, 0xd8, 0xbc, 0x3e,
  0xe6, 0x85, 0xc1, 0x3d, 0x28, 0x5f, 0xb3, 0xbc, 0xd1, 0x50, 0x87, 0xbd,
  0x5e, 0x8c, 0x57, 0x3e, 0xe9, 0xe5, 0x9e, 0xbe, 0x89, 0x4b, 0x7e, 0x3e,
  0xe8, 0x14, 0xa6, 0x3e, 0x26, 0x4d, 0x8c, 0x3b, 0xdd, 0x27, 0xe2, 0xbd,
  0xf7, 0x99, 0x86, 0xbe, 0xac, 0x30, 0x2a, 0x3c, 0x58, 0x28, 0x80, 0x3b,
  0x4d, 0xa5, 0x78, 0xbe, 0x3e, 0x62, 0x44, 0xbd, 0x1d, 0x26, 0x3d, 0xbe,
  0x54, 0x61, 0x88, 0x3e, 0xae, 0x74, 0xdc, 0x3d, 0xee, 0x1b, 0x21, 0x3c,
  0xf0, 0xf6, 0x09, 0xbe, 0x49, 0x90, 0xbf, 0x3d, 0x52, 0x11, 0x92, 0xbe,
  0x6e, 0x53, 0x26, 0x3e, 0x39, 0x96, 0x88, 0x3e, 0x38, 0xd6, 0xe2, 0xbd,
  0xf9, 0x1d, 0x03, 0xbf, 0x7f, 0xe4, 0x93, 0xbd, 0x0f, 0x58, 0x05, 0xbc,
  0x94, 0x4f, 0x43, 0x3e, 0xd4, 0x9b, 0x57, 0xbe, 0x87, 0xff, 0x42, 0xbe,
  0xcd, 0xee, 0xc3, 0xbd, 0x57, 0x30, 0x3a, 0x3e, 0x12, 0x47, 0x47, 0x3d,
  0x77, 0x55, 0xda, 0xbe, 0x2a, 0xa9, 0xfe, 0xbd, 0xf1, 0x53, 0x14, 0x3e,
  0x07, 0xd2, 0x64, 0x3d, 0xe7, 0x18, 0xac, 0xbc, 0x37, 0x76, 0xbd, 0xbe,
  0x53, 0x2a, 0x3b, 0xbd, 0x6e, 0x25, 0x10, 0xbe, 0x59, 0x70, 0xc7, 0x3c,
  0xb2, 0xbb, 0x85, 0xbe, 0x2b, 0x94, 0xe0, 0x3c, 0x56, 0x0d, 0x8b, 0x3d,
  0xb0, 0x28, 0xd0, 0xbe, 0x8b, 0x02, 0x4d, 0xbd, 0x10, 0xb2, 0x77, 0x3e,
  0xb3, 0xa8, 0x6f, 0xbd, 0x3e, 0x53, 0x49, 0x3d, 0xad, 0x58, 0xe7, 0xbc,
  0x40, 0x02, 0x32, 0x3e, 0x2b, 0x31, 0x9c, 0xbd, 0x27, 0x64, 0x23, 0xbe,
  0x28, 0x8f, 0x0a, 0x3e, 0x90, 0x0b, 0xba, 0xbd, 0xad, 0x91, 0xe1, 0xbd,
  0x74, 0xb9, 0xe4, 0xbe, 0xa1, 0xfa, 0x0d, 0x3e, 0xa3, 0x9a, 0xb5, 0xbd,
  0xd5, 0x4b, 0x83, 0x3c, 0xd0, 0x39, 0x84, 0x3c, 0xe6, 0x17, 0x27, 0xbe,
  0x84, 0xe3, 0x8e, 0x3d, 0xdf, 0xdf, 0x91, 0x3d, 0x0f, 0x05, 0x1d, 0x3e,
  0x64, 0x74, 0xb7, 0xbd, 0x78, 0xbb, 0xac, 0x3d, 0x49, 0xcb, 0xb5, 0xbe,
  0xd2, 0x5b, 0x0e, 0x3e, 0xac, 0x5d, 0x35, 0x3e, 0x6c, 0xaf, 0x70, 0x3c,
  0x73, 0x15, 0xc0, 0xbe, 0xb8, 0xa2, 0xf7, 0xbd, 0x76, 0x3b, 0x0c, 0x3f,
  0x78, 0x65, 0x5c, 0x3e, 0x30, 0xde, 0x72, 0xbd, 0x34, 0x60, 0xf2, 0xbd,
  0x1b, 0x57, 0xa6, 0x3d, 0x43, 0xd3, 0xa9, 0x3b, 0x24, 0xee, 0x1c, 0x3e,
  0xa8, 0x62, 0x98, 0x3d, 0xa9, 0x2f, 0x82, 0xbd, 0xc4, 0x0c, 0xd3, 0x3d,
  0x60, 0x3a, 0x19, 0x3d, 0xac, 0x90, 0x35, 0x3e, 0xb7, 0xd0, 0x9b, 0xbd,
  0x2e, 0x26, 0x72, 0x3d, 0x16, 0xd2, 0xbe, 0xbe, 0xa2, 0xb0, 0x4a, 0xbe,
  0x0f, 0xb3, 0x8b, 0x3e, 0xb6, 0x20, 0x72, 0xbe, 0x55, 0xab, 0x37, 0xbe,
  0x88, 0xfa, 0x79, 0x3d, 0x99, 0xb0, 0xd9, 0x3c, 0xb7, 0x04, 0x4d, 0x3e,
  0x68, 0xcf, 0xdc, 0x3d, 0xb5, 0xa1, 0x71, 0xbe, 0x1e, 0xa0, 0x70, 0xbe,
  0x52, 0x7c, 0x86, 0x3d, 0xb9, 0xb5, 0x2e, 0x3d, 0xdb, 0x83, 0xb2, 0x3d,
  0x29, 0x84, 0x03, 0xbe, 0x71, 0x33, 0x97, 0xbd, 0x5d, 0x66, 0xcb, 0xbe,
  0xd5, 0xf8, 0x26, 0x3e, 0xfb, 0xc7, 0xa6, 0x3e, 0x0b, 0xdd, 0x35, 0xbe,
  0x9c, 0x6b, 0x22, 0x3e, 0xa2, 0xa2, 0xcb, 0x3d, 0x9a, 0x30, 0xa1, 0x3c,
  0x02, 0x74, 0x0e, 0xbc, 0x8c, 0x4a, 0x0e, 0x3e, 0x30, 0xed, 0x43, 0xbe,
  0xf3, 0xe6, 0xad, 0xbe, 0xa1, 0x6b, 0x7c, 0xbe, 0x32, 0xa7, 0x89, 0x3d,
  0x34, 0x9d, 0x75, 0xbd, 0xa3, 0x77, 0xb0, 0xbd, 0x51, 0xef, 0x92, 0xbd,
  0x79, 0x5f, 0x5a, 0xbf, 0xf6, 0x63, 0x9d, 0x3d, 0xf7, 0x5f, 0x9d, 0x3d,
  0xe7, 0x39, 0x91, 0x3e, 0x99, 0x81, 0xf1, 0x3d, 0xf1, 0x93, 0xd1, 0x3d,
  0xf5, 0x4c, 0x07, 0x3e, 0x7e, 0x68, 0x05, 0xbe, 0x2b, 0x53, 0xa2, 0xbc,
  0x63, 0xfc, 0x82, 0xbe, 0xf5, 0x53, 0x34, 0xbe, 0x43, 0x44, 0xa2, 0xbd,
  0xed, 0xcf, 0xe0, 0x3d, 0xc3, 0x06, 0x8f, 0x3c, 0x00, 0x40, 0xda, 0xbe,
  0x17, 0x04, 0x36, 0xbd, 0x8c, 0xcd, 0x2f, 0xbf, 0x76, 0xc4, 0x35, 0x3e,
  0x11, 0x2d, 0x99, 0xbd, 0xbe, 0x47, 0xb8, 0xbd, 0xf5, 0xd3, 0x14, 0x3c,
  0x0a, 0x95, 0x1c, 0x3e, 0x2c, 0x49, 0xa8, 0x3d, 0x5e, 0x0c, 0x25, 0xbe,
  0xc3, 0xa4, 0x46, 0xbe, 0x70, 0x0e, 0x90, 0xbe, 0xbc, 0xd9, 0x08, 0x3d,
  0xdd, 0x76, 0x18, 0x3d, 0x87, 0x02, 0xd5, 0x3c, 0xbc, 0x2d, 0x0a, 0xbe,
  0xe6, 0x3e, 0x59, 0xbe, 0xc4, 0xf5, 0x74, 0x3a, 0x62, 0xb1, 0x63, 0xbe,
  0x0c, 0xd2, 0x47, 0x3d, 0xde, 0xe9, 0x09, 0x3e, 0xb6, 0xf1, 0x40, 0x3e,
  0xc0, 0x7d, 0xb6, 0xbc, 0x9b, 0xef, 0x38, 0x3d, 0xb1, 0x5a, 0x6e, 0x3e,
  0xbd, 0xd0, 0x94, 0xbc, 0x6a, 0x4d, 0xa5, 0xbd, 0x45, 0xb2, 0x56, 0xbe,
  0x00, 0x4f, 0x06, 0xbe, 0x48, 0x03, 0x73, 0x3c, 0x9a, 0xe2, 0x33, 0x3e,
  0x37, 0xdc, 0x90, 0x3d, 0x96, 0xe0, 0xbf, 0xbd, 0x9a, 0x06, 0x6f, 0xbe,
  0x74, 0x35, 0x66, 0xbd, 0xf1, 0xb8, 0x7f, 0xbd, 0x7c, 0xf6, 0x02, 0x3e,
  0x5e, 0x83, 0x05, 0x3e, 0x5c, 0x95, 0xa2, 0xbd, 0x86, 0x02, 0x5a, 0x3d,
  0xdd, 0xd7, 0x02, 0xbe, 0xb3, 0xa1, 0xbd, 0xbd, 0x4d, 0x40, 0xec, 0xbd,
  0xbd, 0x60, 0x15, 0xbe, 0x2a, 0x24, 0xa5, 0xbe, 0x7d, 0x4d, 0xd0, 0x3d,
  0xb4, 0x5f, 0x1f, 0x3e, 0xca, 0xfc, 0x6c, 0xbb, 0x19, 0x6e, 0x4e, 0xbd,
  0xb0, 0x43, 0x41, 0xbe, 0x1b, 0xda, 0xa1, 0xbc, 0x51, 0x3b, 0x9a, 0xbe,
  0xcc, 0xb9, 0x11, 0xbd, 0x82, 0xce, 0x9f, 0x3d, 0x84, 0xff, 0x9c, 0xbe,
  0x70, 0x8c, 0x9f, 0x3d, 0x2b, 0x8b, 0xb0, 0xbd, 0xcc, 0x41, 0x31, 0xbd,
  0xf7, 0xd4, 0x86, 0xbe, 0x37, 0x24, 0x4c, 0xbc, 0x03, 0x93, 0x6f, 0xbd,
  0x26, 0x0e, 0xe5, 0x3d, 0x8d, 0x45, 0x32, 0x3d, 0x92, 0x35, 0x29, 0x3e,
  0xe7, 0x22, 0x6d, 0xbd, 0xa4, 0x4d, 0x50, 0xbe, 0x7b, 0xf2, 0x0d, 0xbd,
  0xcb, 0x8b, 0x9c, 0xbe, 0x7c, 0x6f, 0x83, 0x3e, 0xf5, 0x5b, 0x6d, 0xbd,
  0x56, 0xe5, 0x2c, 0xbe, 0x35, 0x33, 0x36, 0xbd, 0x09, 0x7d, 0xab, 0x3e,
  0x89, 0xd4, 0x0e, 0xbe, 0xb2, 0xc4, 0x72, 0xbd, 0xf4, 0x8a, 0x23, 0x3e,
  0x44, 0x9e, 0x9e, 0x3d, 0x29, 0xdd, 0xcf, 0x3d, 0xd7, 0x06, 0x10, 0x3e,
  0x5a, 0x71, 0xa7, 0xbc, 0x28, 0x3e, 0xfa, 0xbc, 0xb8, 0x13, 0x84, 0xbe,
  0x91, 0x57, 0xb7, 0xbd, 0xab, 0xe3, 0x9e, 0xbc, 0xa6, 0xcb, 0x89, 0x3e,
  0xa3, 0x5e, 0xc8, 0x3a, 0x16, 0xa3, 0x08, 0xbe, 0xd6, 0x2c, 0xa9, 0x3d,
  0x7c, 0x78, 0x91, 0x3d, 0x21, 0x42, 0x9a, 0xbd, 0x8b, 0xac, 0x89, 0xbe,
  0x62, 0xbb, 0x84, 0xbe, 0xc4, 0x8b, 0xb6, 0x3d, 0x99, 0xe8, 0x11, 0x3d,
  0xbf, 0x28, 0xe8, 0xbd, 0x3f, 0x34, 0x1d, 0xbe, 0x7a, 0x9b, 0xce, 0x3d,
  0x42, 0xe5, 0xaa, 0xbe, 0xad, 0xe5, 0x42, 0xbe, 0x0a, 0x9a, 0x97, 0xbe,
  0x93, 0xec, 0xb6, 0xbd, 0x69, 0x65, 0x03, 0xbe, 0x4c, 0xb5, 0x36, 0xbe,
  0x8f, 0x85, 0x8c, 0xbc, 0x36, 0xe4, 0x9e, 0x3e, 0x23, 0x66, 0xb7, 0x3d,
  0xea, 0x32, 0x89, 0xbe, 0xc3, 0x1a, 0x13, 0xbe, 0x95, 0x14, 0x3f, 0xbe,
  0x58, 0xaa, 0xac, 0x3d, 0x3b, 0x81, 0x24, 0x3e, 0xf4, 0x99, 0x2e, 0xbe,
  0x23, 0x31, 0xdb, 0x3b, 0xfa, 0x0a, 0x34, 0xbe, 0xdc, 0xcd, 0x0f, 0x3e,
  0x57, 0x90, 0xb1, 0xbd, 0xa6, 0xb1, 0xda, 0xbd, 0xe5, 0x75, 0x73, 0x3e,
  0x83, 0xcd, 0x81, 0xbe, 0x1b, 0x49, 0x18, 0xbe, 0x63, 0x2a, 0xbb, 0xbc,
  0xf2, 0xf2, 0x9e, 0x3d, 0xc5, 0xe9, 0x6c, 0xbe, 0x47, 0x1b, 0xf7, 0xbd,
  0xba, 0xe7, 0x29, 0xbd, 0xef, 0xf8, 0x91, 0x3d, 0xa8, 0x05, 0x8d, 0x3d,
  0x54, 0xd5, 0x6e, 0xbe, 0xae, 0x8a, 0xdc, 0xbd, 0x31, 0xf9, 0x3b, 0xbe,
  0xe2, 0xf4, 0xaf, 0xbd, 0x35, 0xaa, 0xb5, 0xbd, 0xca, 0x4a, 0xa4, 0xbd,
  0x57, 0xc4, 0xfb, 0x3c, 0xa1, 0x61, 0x0d, 0xbe, 0xe4, 0x95, 0x55, 0x3b,
  0xbc, 0xe1, 0x7e, 0xbe, 0xac, 0xc7, 0xa1, 0x3c, 0x10, 0xf2, 0xef, 0x3d,
  0xcf, 0x3a, 0x62, 0xbe, 0x12, 0xa7, 0x5f, 0x3e, 0x2e, 0x9d, 0xf7, 0xbd,
  0xb8, 0x22, 0x61, 0xbd, 0x61, 0x4c, 0x86, 0x3d, 0x6c, 0x87, 0x03, 0xbf,
  0xee, 0x90, 0x46, 0x3e, 0xe4, 0x03, 0x48, 0xbe, 0xb1, 0x72, 0x13, 0x3c,
  0x43, 0x9a, 0x4a, 0xbe, 0x36, 0xf5, 0xba, 0xbd, 0x1f, 0x64, 0x9b, 0x3d,
  0x5f, 0x47, 0xa6, 0xbd, 0x0d, 0x60, 0xba, 0xbd, 0x82, 0xcd, 0x61, 0xbe,
  0x8f, 0x4a, 0x81, 0x3d, 0x72, 0xec, 0x3a, 0x3d, 0x5a, 0xfb, 0x5b, 0x3e,
  0x04, 0xd3, 0x08, 0xbd, 0x5f, 0x5a, 0x3b, 0xbd, 0xf5, 0x39, 0x84, 0xbd,
  0xf6, 0x86, 0xa3, 0xbd, 0x18, 0xdd, 0x99, 0x3d, 0x2b, 0x05, 0x7f, 0xbd,
  0x80, 0xbe, 0x0a, 0x3e, 0xf1, 0x97, 0xdb, 0xbe, 0x19, 0xcc, 0x21, 0xbc,
  0xf1, 0x32, 0x79, 0xbe, 0x61, 0xcd, 0x80, 0xbd, 0x57, 0x30, 0xc4, 0xbc,
  0x57, 0xdc, 0x0e, 0xbe, 0x57, 0xd8, 0x3f, 0x3d, 0xba, 0x66, 0xef, 0x3d,
  0xb3, 0x75, 0xc8, 0x3e, 0x44, 0x63, 0xe5, 0x3d, 0x2f, 0x7b, 0x2c, 0xbd,
  0xe7, 0xd6, 0xf2, 0xbc, 0x73, 0xad, 0x70, 0xbe, 0x23, 0x09, 0x62, 0x3d,
  0x78, 0x12, 0xbe, 0xba, 0xa4, 0xb4, 0x92, 0x3d, 0x29, 0xa8, 0x74, 0xbe,
  0x6b, 0x15, 0xcf, 0xbd, 0x2f, 0x97, 0x35, 0xbe, 0x8c, 0x96, 0x11, 0xbd,
  0xf9, 0x77, 0xc9, 0x3c, 0xfe, 0x76, 0x65, 0xbe, 0xea, 0xe4, 0xb7, 0x3d,
  0x8a, 0x5b, 0x46, 0xbc, 0x29, 0x1c, 0xa6, 0x3e, 0x71, 0xf9, 0x96, 0x3c,
  0x97, 0xe0, 0x28, 0xbd, 0xde, 0xa6, 0xda, 0x3b, 0xcd, 0x50, 0x85, 0xbe,
  0xea, 0xd2, 0xcb, 0x3c, 0x44, 0x92, 0x50, 0xbc, 0x56, 0x02, 0x0d, 0x3d,
  0xbe, 0xcd, 0x8f, 0x3d, 0x03, 0xb8, 0x24, 0x3e, 0xc9, 0x81, 0x01, 0xbe,
  0xdd, 0x57, 0x4e, 0xbe, 0xa7, 0xc3, 0x2c, 0xbe, 0x28, 0xd1, 0xa0, 0xbe,
  0xb3, 0xed, 0xc9, 0x3d, 0x89, 0x1b, 0x5e, 0xbe, 0xcb, 0x0e, 0x87, 0x3e,
  0x0b, 0x12, 0x02, 0xbe, 0xc7, 0x53, 0x26, 0xbd, 0x24, 0x9e, 0x65, 0xbd,
  0xfd, 0x07, 0x36, 0xbe, 0xc3, 0x15, 0x02, 0x3e, 0xb7, 0x78, 0xba, 0xbc,
  0x65, 0x4a, 0xe1, 0x3c, 0xbf, 0x9a, 0x1f, 0x3e, 0xfc, 0xbc, 0x04, 0xbe,
  0x67, 0xe8, 0x3b, 0xbe, 0x65, 0xc4, 0x2a, 0xbe, 0x41, 0x5f, 0xb4, 0xbd,
  0xcb, 0x44, 0x66, 0xbe, 0xed, 0x52, 0x19, 0x3e, 0x21, 0xe6, 0x6f, 0x3c,
  0x59, 0xdf, 0x7a, 0x3e, 0x89, 0xb1, 0x2f, 0xbe, 0x49, 0xe2, 0x99, 0xbc,
  0x14, 0x09, 0x4f, 0x3d, 0x7f, 0xa1, 0xa0, 0xbe, 0xe9, 0x43, 0x6c, 0x3c,
  0xa4, 0xce, 0x74, 0xbc, 0x9f, 0xe3, 0x07, 0x3d, 0x26, 0xcc, 0x26, 0x3e,
  0x7b, 0x5c, 0x34, 0xbe, 0x38, 0x9e, 0xdd, 0xbd, 0x45, 0x0f, 0x55, 0x3d,
  0xc8, 0x2e, 0x19, 0xbc, 0xf2, 0xa8, 0x05, 0xbf, 0x4b, 0x70, 0x06, 0x3d,
  0x5d, 0x5e, 0x56, 0xbd, 0x1a, 0x6d, 0x00, 0x3e, 0x32, 0x16, 0x60, 0xbe,
  0xb2, 0xed, 0xa5, 0xbd, 0xb2, 0xea, 0x6d, 0xbc, 0xef, 0xe1, 0x98, 0xbc,
  0x75, 0x47, 0xb7, 0x3d, 0x40, 0x63, 0xd6, 0xbc, 0xf3, 0xd6, 0x44, 0x3b,
  0x1f, 0xd3, 0xd0, 0xbb, 0x67, 0x5d, 0x08, 0x3e, 0x61, 0x9d, 0x95, 0x3f,
  0xec, 0xc3, 0x41, 0xbd, 0x6a, 0xc1, 0xfc, 0x3c, 0x8a, 0x26, 0xef, 0xbd,
  0xd0, 0x1b, 0x58, 0x3c, 0x86, 0xc6, 0xc3, 0xbd, 0xf9, 0x66, 0x9a, 0x3d,
  0x73, 0x03, 0x4f, 0xbe, 0x1b, 0x6d, 0x8b, 0xbb, 0xb3, 0x44, 0x84, 0xbe,
  0x29, 0xad, 0x35, 0xbe, 0x08, 0x0a, 0x03, 0x3d, 0x1d, 0x55, 0x4a, 0xbe,
  0xde, 0x5a, 0x18, 0x3d, 0x7a, 0xbf, 0x3b, 0xbe, 0x6f, 0xff, 0xea, 0xbd,
  0x1b, 0x1f, 0x8c, 0x3f, 0x5d, 0xb5, 0x03, 0x3f, 0xca, 0x28, 0x40, 0xbe,
  0x92, 0x97, 0x29, 0xbe, 0xfc, 0x30, 0x8e, 0xb9, 0x7c, 0xb0, 0xa0, 0xbc,
  0xa5, 0x38, 0x2a, 0xbe, 0xf2, 0x53, 0xa7, 0xbd, 0x46, 0xfd, 0x97, 0xbb,
  0xef, 0x77, 0x41, 0xbd, 0xd1, 0x44, 0x15, 0xbe, 0x74, 0x65, 0x0e, 0xbe,
  0xdc, 0xad, 0x0f, 0xbe, 0x4d, 0x3e, 0x59, 0xbe, 0xc5, 0x8e, 0x44, 0xbe,
  0x85, 0x63, 0x39, 0x3e, 0x68, 0xfd, 0x84, 0x3f, 0xfb, 0x22, 0x6b, 0x3d,
  0x51, 0xd6, 0x66, 0xbd, 0xb1, 0xf0, 0xaa, 0x3d, 0x61, 0x53, 0x12, 0xbd,
  0xfc, 0x62, 0x10, 0xbe, 0xa5, 0xd1, 0x6a, 0xbe, 0x58, 0x86, 0x65, 0xbc,
  0x46, 0x6c, 0x7f, 0xbd, 0xa7, 0x2c, 0x2b, 0xbe, 0x2a, 0xdf, 0x83, 0xbe,
  0x21, 0xed, 0xe6, 0x3d, 0xc6, 0x6c, 0x00, 0xbd, 0xdb, 0x29, 0x40, 0xbd,
  0x45, 0xed, 0x00, 0xbe, 0xa3, 0x28, 0xfc, 0xbd, 0x13, 0x21, 0xc7, 0x3f,
  0xb8, 0xb3, 0x90, 0x3e, 0x72, 0xda, 0x86, 0xbd, 0x5f, 0x40, 0xc5, 0xbd,
  0xe8, 0x04, 0x22, 0xbe, 0xd5, 0xf5, 0x52, 0xbc, 0x82, 0x4e, 0xf1, 0x3c,
  0x40, 0xc4, 0xbe, 0xbd, 0x29, 0x75, 0xc3, 0x3c, 0x1a, 0xe5, 0x24, 0xbe,
  0x6e, 0xc9, 0xdb, 0xbd, 0x77, 0x18, 0xcd, 0xbd, 0x1e, 0x74, 0x6e, 0xbe,
  0x54, 0x2c, 0x25, 0xbc, 0x14, 0x3a, 0xb0, 0x3d, 0x65, 0x4a, 0x05, 0x3e,
  0x5d, 0x28, 0x8a, 0x3f, 0x50, 0x18, 0x91, 0x3e, 0xb9, 0x11, 0x2e, 0xbe,
  0x6f, 0xfa, 0x11, 0x3d, 0x86, 0x93, 0xdd, 0x3d, 0xfb, 0xce, 0x6a, 0xbe,
  0x54, 0xe2, 0x9b, 0xbd, 0x6f, 0xb4, 0x81, 0xbe, 0x7e, 0x01, 0x31, 0xbc,
  0x0e, 0xb4, 0x02, 0xbe, 0x68, 0x55, 0xbd, 0xbd, 0x5e, 0xa9, 0x8a, 0xbe,
  0xa0, 0xa8, 0xa2, 0xbd, 0x1b, 0x93, 0x6a, 0x3b, 0xe4, 0x66, 0x28, 0xbe,
  0x38, 0x32, 0xaf, 0xbd, 0x5c, 0x80, 0x9c, 0x3f, 0x9a, 0xb4, 0x9b, 0x3e,
  0x46, 0x32, 0x52, 0xbd, 0xf3, 0x74, 0x19, 0xbe, 0xb6, 0xdb, 0x61, 0xbe,
  0x5a, 0x0e, 0xa9, 0xbe, 0x03, 0x27, 0x3c, 0xbc, 0x84, 0xab, 0x61, 0x3c,
  0x6a, 0x49, 0xd1, 0x3b, 0x75, 0xc4, 0xc7, 0xbd, 0xcc, 0x5d, 0x75, 0xbd,
  0x97, 0x53, 0x2a, 0xbe, 0x1c, 0x6b, 0x89, 0xbe, 0xc7, 0xea, 0x71, 0x3d,
  0xca, 0x8c, 0xb6, 0x3d, 0xb0, 0x4a, 0x46, 0xbd, 0x36, 0x12, 0xe8, 0x3f,
  0xcb, 0xa6, 0x0f, 0x3f, 0xe8, 0x97, 0x11, 0xbe, 0x87, 0x90, 0x94, 0xbd,
  0x35, 0xfd, 0x7b, 0xbe, 0x80, 0x2a, 0x6a, 0xbe, 0x5d, 0x14, 0x5d, 0xbe,
  0x92, 0xb7, 0xf9, 0xbd, 0xd4, 0x62, 0x1c, 0xbe, 0x02, 0x62, 0x58, 0x3d,
  0xf5, 0x09, 0x9a, 0xbe, 0x49, 0x74, 0x3a, 0xbd, 0x87, 0xf9, 0x07, 0xbe,
  0x22, 0xd6, 0x45, 0xbe, 0x73, 0x57, 0xbc, 0x3d, 0x66, 0xfb, 0x47, 0xbe,
  0x10, 0x2a, 0xf6, 0x3d, 0x10, 0x3d, 0x3f, 0xbe, 0x01, 0x7c, 0x82, 0xbc,
  0x81, 0x3d, 0xd8, 0x3b, 0xa2, 0x89, 0x8c, 0xbe, 0x56, 0xaf, 0x9e, 0xbc,
  0xb3, 0x2d, 0x0c, 0x3d, 0x57, 0xec, 0x72, 0xbd, 0x23, 0x54, 0x1e, 0xbd,
  0xc7, 0x21, 0xbf, 0xbe, 0xdf, 0x4e, 0x2d, 0x3e, 0x83, 0x4c, 0x00, 0x3c,
  0x2b, 0xe1, 0x5c, 0xbe, 0xe5, 0x34, 0xc9, 0xbd, 0x41, 0x0d, 0x06, 0x3c,
  0x5a, 0x8f, 0x8f, 0xbd, 0x2e, 0xc0, 0x40, 0xbe, 0xbe, 0x80, 0x40, 0xbd,
  0xb9, 0x36, 0xb6, 0xbd, 0xd8, 0x04, 0x25, 0x3d, 0x9a, 0x75, 0x68, 0xbd,
  0x85, 0x1b, 0x18, 0x3d, 0x46, 0x07, 0x70, 0xbe, 0xa5, 0x55, 0x5b, 0x3e,
  0xc7, 0x5b, 0x80, 0xbd, 0x74, 0xfa, 0x87, 0xbd, 0xb5, 0xdb, 0x61, 0x3c,
  0x7d, 0x50, 0x28, 0xbd, 0xf7, 0xb7, 0x28, 0xbe, 0x16, 0x12, 0xf1, 0xbd,
  0x49, 0x54, 0x34, 0x3d, 0x83, 0xbd, 0x9e, 0x3d, 0xf9, 0x2b, 0x68, 0xbc,
  0x4e, 0x6b, 0x6c, 0x3d, 0x56, 0xe1, 0x3f, 0x3c, 0x17, 0x17, 0x48, 0x3d,
  0x6d, 0xc6, 0x9f, 0xbc, 0x42, 0xab, 0x05, 0x3e, 0x55, 0x12, 0xd1, 0x39,
  0xcb, 0x29, 0x40, 0x3e, 0x14, 0xe5, 0xa2, 0xbd, 0x1c, 0xde, 0x4f, 0x3e,
  0xfc, 0x26, 0xd0, 0x3c, 0x1f, 0xf2, 0x87, 0x3c, 0x06, 0xcb, 0x65, 0xbd,
  0x92, 0x50, 0x22, 0xbe, 0x5a, 0x03, 0xaf, 0x3d, 0x36, 0x57, 0x12, 0x3b,
  0x2b, 0x81, 0xf0, 0xbc, 0x4b, 0x49, 0xf6, 0xbd, 0xde, 0x65, 0x37, 0xbd,
  0xfe, 0x90, 0x83, 0xba, 0x35, 0xf6, 0x2e, 0x3e, 0xc4, 0xb0, 0xaf, 0x3d,
  0xa1, 0x0f, 0x01, 0xbd, 0x17, 0x8b, 0x7f, 0x3e, 0xd0, 0x16, 0x10, 0xbe,
  0x36, 0x56, 0x97, 0x3d, 0xbf, 0x64, 0x96, 0xbd, 0x25, 0x1d, 0x0c, 0xbe,
  0xbe, 0x1c, 0x19, 0xbe, 0x58, 0x90, 0x27, 0xbe, 0x53, 0x7f, 0xb6, 0x3c,
  0xac, 0xce, 0xfe, 0x3d, 0xf9, 0x22, 0xc7, 0x3d, 0x5c, 0xbb, 0xcc, 0x3d,
  0x1b, 0x1b, 0x8d, 0x3d, 0x71, 0x70, 0x83, 0x3d, 0xe2, 0xc0, 0xf8, 0xbc,
  0xe1, 0x0a, 0x39, 0xbd, 0x23, 0x99, 0xb5, 0xbd, 0x89, 0xaa, 0x54, 0x3e,
  0xdf, 0x64, 0xc0, 0xbd, 0x9f, 0x5a, 0xf3, 0xbc, 0xda, 0xba, 0x2a, 0x3e,
  0xe9, 0xb2, 0xae, 0xbd, 0x4f, 0xd8, 0xb2, 0xbd, 0xfe, 0x2a, 0x98, 0xbd,
  0x89, 0x17, 0x10, 0xbe, 0xbd, 0xac, 0x75, 0x3e, 0x22, 0x24, 0x43, 0xbe,
  0x4e, 0x26, 0xe7, 0x3c, 0xeb, 0xa7, 0xe4, 0xbc, 0xc4, 0xa5, 0x40, 0x3d,
  0x15, 0xac, 0x13, 0x3d, 0x77, 0x0e, 0xe2, 0xbd, 0xdc, 0x81, 0x12, 0x3d,
  0xf4, 0x67, 0x5f, 0x3e, 0xe2, 0x00, 0x79, 0xbe, 0x89, 0x9f, 0x04, 0x3e,
  0x39, 0x47, 0x16, 0xbe, 0xc4, 0x6a, 0xb0, 0x3c, 0x4d, 0xa5, 0x31, 0xbe,
  0x9d, 0x8c, 0x2b, 0xbe, 0x21, 0x14, 0x61, 0x3b, 0x95, 0x1f, 0xfb, 0xbc,
  0xd4, 0xa7, 0xb3, 0xbd, 0x2c, 0xd1, 0x0c, 0x3e, 0xbf, 0xe6, 0x7b, 0xbc,
  0x32, 0x22, 0x6a, 0x3d, 0x3b, 0xb6, 0xdf, 0xbd, 0x32, 0x8e, 0x69, 0xbd,
  0xab, 0x72, 0x5c, 0xbc, 0x46, 0xbe, 0xc0, 0x3d, 0x8b, 0x21, 0xd5, 0xbd,
  0xe9, 0xe3, 0xda, 0xbc, 0xdd, 0x57, 0xf9, 0xbc, 0x60, 0xdb, 0x90, 0xbd,
  0xcc, 0x23, 0x65, 0xbe, 0xff, 0x1e, 0x5b, 0xbc, 0xf0, 0x38, 0x23, 0x3e,
  0x5b, 0xa5, 0x56, 0x3d, 0x2d, 0x64, 0xbe, 0x3c, 0x11, 0x44, 0xd7, 0xbe,
  0x73, 0x70, 0x99, 0xbd, 0x43, 0x4a, 0x8a, 0x3d, 0xdd, 0x63, 0x56, 0xbe,
  0xe8, 0x94, 0x80, 0x3d, 0x45, 0x84, 0x52, 0xbd, 0x20, 0xb4, 0x92, 0x3e,
  0x91, 0x6b, 0xb8, 0xbd, 0x6e, 0x68, 0x40, 0xbe, 0xf2, 0xdb, 0xb8, 0x3d,
  0xda, 0xad, 0xff, 0xbd, 0x13, 0x00, 0x46, 0xbd, 0xe9, 0xfe, 0xb7, 0xbe,
  0x50, 0xe4, 0x90, 0x3d, 0x97, 0x90, 0x67, 0x3d, 0xcb, 0x88, 0x96, 0xbd,
  0x04, 0xd9, 0xae, 0x3b, 0x7d, 0xd0, 0x39, 0xbd, 0x55, 0x28, 0x39, 0x3e,
  0x76, 0xf1, 0x7e, 0x3d, 0x44, 0xaa, 0xd4, 0xbd, 0xcb, 0x50, 0x68, 0xbe,
  0x7c, 0xc4, 0x86, 0x3d, 0x5a, 0xcd, 0x06, 0xbf, 0x0f, 0x34, 0x15, 0x3e,
  0x58, 0xe8, 0x93, 0xbd, 0x53, 0x23, 0x6e, 0xbe, 0x47, 0x4b, 0xee, 0xbc,
  0xdc, 0x7b, 0x40, 0xbe, 0x2e, 0x2b, 0xd6, 0x3b, 0xe9, 0x93, 0x73, 0xbe,
  0x27, 0x8a, 0x7e, 0xbc, 0xdb, 0x03, 0x88, 0x3d, 0x49, 0x40, 0xe3, 0x3d,
  0x1f, 0xb0, 0x61, 0xbe, 0x02, 0x2e, 0x8b, 0x3e, 0x2b, 0x58, 0x0b, 0x3d,
  0x65, 0x88, 0xea, 0xbd, 0xfb, 0xec, 0xb1, 0xbd, 0xcd, 0xd7, 0x70, 0xbe,
  0x55, 0xfc, 0xe1, 0x3d, 0x92, 0x86, 0xe0, 0x3d, 0x81, 0xad, 0x4e, 0xbe,
  0x21, 0xb5, 0x34, 0xbd, 0xdb, 0xf7, 0xb4, 0xbe, 0x6e, 0xb7, 0xcd, 0x3e,
  0x58, 0x2f, 0xca, 0xbc, 0xc4, 0xca, 0x20, 0xbe, 0x30, 0x1c, 0xd4, 0x3d,
  0x17, 0x17, 0x46, 0x3d, 0x42, 0x11, 0x95, 0x3e, 0x2a, 0xf0, 0x6d, 0x3c,
  0xde, 0xef, 0x8f, 0x3d, 0xc1, 0x5e, 0x63, 0xbe, 0xed, 0xed, 0x71, 0x3d,
  0x33, 0xdd, 0xbc, 0x3c, 0x92, 0x70, 0x21, 0x3d, 0xfa, 0x7c, 0x94, 0x3d,
  0x6a, 0xb4, 0xf9, 0xbd, 0x27, 0x08, 0x69, 0xbd, 0x8a, 0x7b, 0x93, 0xbd,
  0x68, 0x39, 0xc6, 0x3e, 0x60, 0x65, 0x2a, 0xbd, 0xbd, 0xdf, 0xa8, 0x3e,
  0xfc, 0xf6, 0x08, 0xbe, 0xd5, 0xf6, 0x4e, 0xbd, 0xec, 0x95, 0x6c, 0x3e,
  0x4b, 0xdf, 0xfe, 0x3d, 0x31, 0xc9, 0x1b, 0xbd, 0x3f, 0x5b, 0x28, 0xbe,
  0xf5, 0x24, 0x36, 0x3e, 0x6a, 0xa7, 0xee, 0xbd, 0x10, 0x66, 0xde, 0x3d,
  0xae, 0x63, 0xdb, 0x3d, 0xcc, 0x62, 0x64, 0xbe, 0xc9, 0xc0, 0x31, 0xbd,
  0x3a, 0x58, 0x87, 0x3b, 0x11, 0xd4, 0x9f, 0x3d, 0xe1, 0x39, 0x04, 0x3e,
  0xc7, 0x56, 0x4a, 0x3e, 0x76, 0xf3, 0x6f, 0xbe, 0x6c, 0x83, 0x2e, 0xbe,
  0x8e, 0xb2, 0x45, 0x3e, 0xb8, 0x3d, 0xa7, 0x3d, 0x08, 0x1a, 0x0e, 0x3e,
  0x07, 0x84, 0x60, 0xbe, 0x78, 0xdb, 0x75, 0x3e, 0x40, 0xd2, 0x0f, 0xbc,
  0xe3, 0x6b, 0xba, 0x3d, 0x70, 0x48, 0x27, 0x3e, 0x3d, 0x34, 0x33, 0xbe,
  0xee, 0x0d, 0xc2, 0xbc, 0xcf, 0xb7, 0x0e, 0xbe, 0x87, 0x45, 0xf8, 0xbd,
  0xf0, 0xf1, 0x5c, 0x3e, 0x87, 0x43, 0x96, 0x3d, 0x2a, 0xbd, 0xed, 0xbb,
  0xa4, 0xb8, 0xf7, 0xbe, 0xa8, 0xd0, 0x29, 0x3e, 0x53, 0x52, 0xa6, 0x3c,
  0x80, 0x94, 0xbe, 0x3d, 0x54, 0xc6, 0x9e, 0xbd, 0xf3, 0xef, 0x02, 0x3e,
  0x25, 0x3e, 0x36, 0x3b, 0xf3, 0xcd, 0x82, 0x3d, 0x96, 0x18, 0xbc, 0x3d,
  0x30, 0xa1, 0x86, 0xbc, 0x0a, 0x19, 0x00, 0xbe, 0x0d, 0x90, 0x92, 0x3d,
  0x89, 0xeb, 0x83, 0xbe, 0x76, 0x25, 0x87, 0x3e, 0x89, 0x3e, 0x8c, 0x3e,
  0x0b, 0x83, 0xc0, 0x3d, 0xd3, 0xa5, 0x81, 0x3e, 0x21, 0x5a, 0xe5, 0x3d,
  0x33, 0xfd, 0xac, 0xbe, 0x80, 0x94, 0xd9, 0xbe, 0xcf, 0x46, 0x83, 0xbe,
  0xe2, 0x17, 0x57, 0xbe, 0x09, 0xeb, 0xc8, 0x3d, 0x1f, 0x00, 0x44, 0x3d,
  0x81, 0x95, 0x30, 0xbe, 0x3d, 0xc0, 0x56, 0xbf, 0xfe, 0x17, 0x92, 0xbc,
  0x6d, 0xb1, 0xc6, 0x3d, 0x6f, 0x67, 0x82, 0x3d, 0x03, 0x75, 0x49, 0x3e,
  0x6d, 0x94, 0xd5, 0x3e, 0xa2, 0xa0, 0xf3, 0x3d, 0xbc, 0x46, 0xc6, 0x3d,
  0xa4, 0x87, 0x0d, 0xbe, 0xbd, 0x4a, 0x94, 0xbe, 0x3b, 0xce, 0x71, 0xbd,
  0x6b, 0xe7, 0xbf, 0xbe, 0x77, 0x47, 0xf4, 0xbd, 0xef, 0xbd, 0x29, 0x3e,
  0xfd, 0xa6, 0xd1, 0xbd, 0xb9, 0x46, 0x18, 0xbb, 0x05, 0xb6, 0x01, 0xbf,
  0x43, 0x04, 0x30, 0x3d, 0xbe, 0xe5, 0xa8, 0x3c, 0xcf, 0x6c, 0x65, 0x3e,
  0xd5, 0x1d, 0xa7, 0xbc, 0x88, 0x85, 0x91, 0x3d, 0x21, 0x8f, 0x63, 0x3e,
  0xf0, 0x93, 0xf0, 0x3d, 0x05, 0x8c, 0x2b, 0xbe, 0xdb, 0xab, 0x80, 0xbd,
  0x36, 0x47, 0xda, 0xbd, 0xd1, 0x93, 0x11, 0xbd, 0xb5, 0x85, 0x5d, 0x3d,
  0xc6, 0x9b, 0x51, 0x3d, 0xd3, 0x8b, 0x9a, 0xbd, 0xec, 0xa2, 0x78, 0x3d,
  0x3b, 0x03, 0x84, 0xbe, 0x5e, 0x43, 0x44, 0xba, 0x21, 0x17, 0x97, 0xbd,
  0x21, 0x0a, 0xdf, 0x3d, 0xdf, 0xcc, 0xa7, 0x3e, 0x79, 0xa3, 0x3e, 0x3d,
  0x65, 0xc3, 0x0e, 0x3b, 0x31, 0x8f, 0xcd, 0x3d, 0x51, 0x42, 0x1a, 0xbe,
  0xc4, 0x41, 0xb2, 0x3d, 0xc6, 0x74, 0x1f, 0xbd, 0x46, 0xda, 0x0f, 0xbd,
  0xee, 0x4c, 0xf4, 0xbc, 0xa8, 0x68, 0x52, 0x39, 0x8f, 0xa9, 0x49, 0xbd,
  0x0e, 0x9b, 0x18, 0xbc, 0x4b, 0x99, 0x1a, 0xbd, 0xf6, 0x32, 0x15, 0xbd,
  0x31, 0x94, 0x1d, 0xbd, 0x40, 0x67, 0xd7, 0x3d, 0xa3, 0x22, 0xe4, 0xbd,
  0x1e, 0x38, 0xaa, 0x3e, 0xdd, 0xfb, 0x54, 0xbd, 0x3e, 0x00, 0x96, 0x3d,
  0x4c, 0xc4, 0x47, 0xbe, 0xb0, 0xba, 0x52, 0xbe, 0x12, 0x94, 0x06, 0xbe,
  0x4b, 0x72, 0x5d, 0xbe, 0x9b, 0x4c, 0x52, 0xbd, 0x23, 0x3d, 0x87, 0x3d,
  0xcb, 0xa0, 0xed, 0x3c, 0xf7, 0x47, 0x13, 0xbe, 0x13, 0xb1, 0xc5, 0xbe,
  0x81, 0x8d, 0x25, 0xbd, 0x61, 0x8d, 0x0e, 0xbc, 0x79, 0x2c, 0x66, 0x3e,
  0x39, 0x06, 0x58, 0x3e, 0x90, 0x16, 0xdb, 0x3e, 0x99, 0xc5, 0xce, 0x3d,
  0x32, 0xf0, 0xee, 0x3d, 0xb8, 0xa1, 0x7a, 0xbc, 0x0d, 0x51, 0xfd, 0xbd,
  0x9e, 0x4a, 0x3d, 0xbe, 0x5a, 0xd0, 0x1b, 0xbe, 0x12, 0xa3, 0xd3, 0xbc,
  0x1c, 0x72, 0xe1, 0x3c, 0x1a, 0xcf, 0xc1, 0xbd, 0x2e, 0xa9, 0xf4, 0xbd,
  0xea, 0x6d, 0x96, 0xbe, 0x9a, 0xef, 0x6a, 0xbd, 0x48, 0x8b, 0x8c, 0x3d,
  0x9c, 0x16, 0xa4, 0xbe, 0x9f, 0x20, 0xb5, 0x3d, 0x59, 0x9c, 0xcc, 0x3e,
  0x21, 0x6d, 0x79, 0x3d, 0x38, 0xd8, 0x36, 0xbd, 0x15, 0x01, 0x8f, 0x3d,
  0x7f, 0x50, 0xd2, 0xbd, 0xad, 0x45, 0xf1, 0xbd, 0x2a, 0x11, 0x1d, 0xbe,
  0xb3, 0x17, 0xc8, 0x3c, 0x66, 0xf0, 0xf6, 0x3c, 0x6f, 0xdc, 0x0a, 0xbe,
  0x49, 0xdd, 0x47, 0xbe, 0x15, 0x78, 0x5c, 0xbe, 0x3b, 0x17, 0x4e, 0x3c,
  0x6c, 0xd2, 0xe1, 0x3c, 0x97, 0x57, 0x88, 0xbe, 0x87, 0x19, 0x20, 0xbe,
  0xb4, 0x3a, 0x57, 0xbe, 0xb9, 0xe9, 0x0e, 0xbf, 0x20, 0x92, 0x8b, 0xbe,
  0x80, 0xf4, 0xbc, 0x3d, 0x6d, 0xa0, 0xbe, 0x3d, 0xe0, 0xa9, 0xd6, 0x3d,
  0x8f, 0x67, 0xb7, 0xbc, 0x41, 0x24, 0x32, 0x3e, 0x45, 0xe0, 0x16, 0xbc,
  0x25, 0x8f, 0xec, 0xbd, 0xb6, 0x64, 0x16, 0x3e, 0xd3, 0x14, 0xc8, 0xbb,
  0x99, 0xf8, 0x14, 0xbe, 0xee, 0x50, 0x4c, 0xbe, 0x32, 0x6f, 0x86, 0x3e,
  0xd9, 0x7b, 0x6a, 0x3e, 0x5a, 0x11, 0x3e, 0xbe, 0x59, 0xae, 0x46, 0xbe,
  0x4f, 0x48, 0x1a, 0xbe, 0x50, 0x3e, 0x13, 0x3d, 0x6f, 0x51, 0x14, 0x3e,
  0xc7, 0xcf, 0xa6, 0xb7, 0xd9, 0xdb, 0xf9, 0xbd, 0xe2, 0x75, 0x5f, 0x3e,
  0x08, 0x4c, 0x86, 0xbe, 0x9c, 0x4f, 0x1e, 0x3e, 0x0b, 0xd4, 0x46, 0x3d,
  0x2e, 0x1b, 0xc9, 0xbd, 0x42, 0x83, 0x8f, 0xbe, 0xc4, 0xd9, 0x07, 0xbe,
  0xfd, 0xa0, 0x1b, 0x3f, 0x9a, 0x8d, 0x96, 0x3d, 0x54, 0x9b, 0x51, 0x3d,
  0x7f, 0x38, 0x53, 0xbd, 0xbd, 0x76, 0xb4, 0xbd, 0x30, 0x0c, 0xa8, 0x3d,
  0xfe, 0x97, 0xdd, 0x3d, 0x9b, 0x28, 0xdb, 0xbd, 0xf0, 0x41, 0x08, 0xbe,
  0x21, 0x69, 0xaa, 0x3b, 0x25, 0x39, 0x5b, 0xbd, 0xbc, 0x09, 0x08, 0x3e,
  0x6c, 0x79, 0xae, 0xbe, 0x32, 0x86, 0xad, 0x3b, 0x38, 0xb1, 0x9a, 0xbe,
  0x4f, 0x4c, 0xad, 0xbd, 0x7c, 0x46, 0xad, 0x3e, 0x57, 0x02, 0x29, 0x3e,
  0x20, 0x6e, 0x2d, 0xbd, 0x94, 0x8b, 0x33, 0xbb, 0x47, 0xbd, 0x1d, 0xbd,
  0x2a, 0x9d, 0x21, 0x3d, 0x30, 0xef, 0x6e, 0x3c, 0xd4, 0x2d, 0x7d, 0xbe,
  0x54, 0xf5, 0x92, 0xbe, 0xc0, 0x75, 0xf6, 0xbd, 0xe0, 0x37, 0xea, 0x3c,
  0x6a, 0x7a, 0xf9, 0x3d, 0x72, 0xf2, 0x77, 0xbe, 0xa3, 0x75, 0x54, 0x3b,
  0x2c, 0xfc, 0x9f, 0xbe, 0x79, 0xdf, 0x23, 0x3d, 0x31, 0x1c, 0x21, 0x3e,
  0xfc, 0xd8, 0x76, 0xbc, 0x24, 0xff, 0xfc, 0xbd, 0xad, 0x56, 0xbf, 0x3c,
  0xdb, 0x3d, 0xf6, 0xbc, 0x85, 0xba, 0x37, 0x3d, 0x0a, 0xd9, 0x84, 0xbd,
  0xad, 0xf9, 0x5a, 0xbe, 0x0d, 0x5f, 0xda, 0xbe, 0x1a, 0xb6, 0xfb, 0x3d,
  0xa0, 0x07, 0xb4, 0x3d, 0x28, 0xab, 0x05, 0xbe, 0xd3, 0xd7, 0x2b, 0xbe,
  0xae, 0x2a, 0xe9, 0xbd, 0xc2, 0x04, 0xa5, 0xbe, 0xbe, 0x6b, 0xfe, 0x3c,
  0x55, 0xf1, 0x3b, 0xbe, 0x40, 0x49, 0x37, 0x3e, 0x1f, 0x74, 0x09, 0xbe,
  0x77, 0x7c, 0x54, 0x3d, 0x17, 0x3a, 0x89, 0x3d, 0xc9, 0x00, 0x8b, 0xbe,
  0xde, 0xf0, 0xbb, 0xbd, 0xb3, 0x38, 0x70, 0xbe, 0x3c, 0x76, 0x95, 0xbe,
  0xc9, 0xce, 0xff, 0xbd, 0x9f, 0x2c, 0x62, 0x3d, 0xa7, 0xfb, 0x1e, 0xbc,
  0xb4, 0xd7, 0x8a, 0xbe, 0xc7, 0xee, 0xdc, 0x3c, 0x7d, 0xd4, 0xa4, 0xbe,
  0x48, 0xba, 0x92, 0x3c, 0x7d, 0x88, 0x84, 0xbd, 0x7b, 0x74, 0x9e, 0x3e,
  0xea, 0x16, 0x87, 0x3d, 0x3b, 0xe4, 0x8a, 0x3e, 0x97, 0x44, 0x3c, 0xbe,
  0xb1, 0x43, 0xa3, 0x3a, 0x3d, 0xb8, 0x22, 0xbe, 0x0d, 0x94, 0xad, 0xbc,
  0xac, 0x37, 0xcc, 0x39, 0x36, 0x25, 0xa7, 0x3d, 0x68, 0xfa, 0x96, 0x3d,
  0xb9, 0xf1, 0x1d, 0xbe, 0x22, 0xb2, 0xea, 0x3d, 0x45, 0x1f, 0x7a, 0xbc,
  0xf4, 0xbd, 0x71, 0xbd, 0xc1, 0x7f, 0xae, 0x3c, 0xc0, 0xe1, 0x4d, 0xbd,
  0xd3, 0xa9, 0x45, 0xbe, 0xdb, 0x7a, 0x1d, 0xbe, 0x06, 0x78, 0x09, 0xbc,
  0xb5, 0xba, 0x9a, 0xbc, 0xda, 0x92, 0x2c, 0xbf, 0xf6, 0xa1, 0xb8, 0xbe,
  0x7c, 0xbe, 0xbc, 0xbe, 0x20, 0xe2, 0x50, 0x3d, 0x5f, 0x10, 0x48, 0xbe,
  0x9c, 0x31, 0xa1, 0xbc, 0xde, 0x59, 0x9d, 0xbc, 0x2d, 0x57, 0x20, 0xbe,
  0x75, 0x56, 0x53, 0xbe, 0x0e, 0xf0, 0xe8, 0x3c, 0xa7, 0x03, 0x4d, 0xbd,
  0x11, 0xa6, 0xf6, 0xbd, 0xff, 0x3a, 0x25, 0xbe, 0x65, 0xf9, 0x31, 0xbe,
  0x12, 0xb2, 0x88, 0x3c, 0x05, 0x2b, 0x16, 0xbc, 0x04, 0x66, 0xd1, 0xbe,
  0x37, 0x68, 0xc0, 0xbe, 0x80, 0x59, 0xdd, 0xbe, 0x6b, 0xdb, 0x07, 0xbe,
  0x05, 0x15, 0x35, 0xbe, 0x01, 0x79, 0x57, 0xbe, 0xf4, 0xe0, 0x23, 0xbf,
  0x58, 0x17, 0x14, 0x3c, 0x10, 0x1c, 0xaa, 0xbe, 0x28, 0xdd, 0xe5, 0xbc,
  0x9b, 0x26, 0xa3, 0xbe, 0x7e, 0x70, 0x0a, 0xbe, 0x8d, 0x6f, 0xfd, 0xbc,
  0x65, 0xc6, 0xe4, 0x3b, 0x3f, 0x4e, 0x1c, 0xbe, 0x07, 0x74, 0x34, 0x3c,
  0xae, 0xa4, 0x02, 0xbf, 0x2d, 0xb8, 0xf9, 0xbe, 0xcf, 0xb0, 0x86, 0xbe,
  0x24, 0xd8, 0xc0, 0xbd, 0x5d, 0x9e, 0xfd, 0xbd, 0x0b, 0xc1, 0x78, 0xbe,
  0xdd, 0x79, 0xe7, 0xbe, 0xb0, 0xfa, 0x9f, 0xbd, 0xe5, 0x75, 0x93, 0xbe,
  0x22, 0x1b, 0x4d, 0xbc, 0xe7, 0xf5, 0xa5, 0xbe, 0xb8, 0x3f, 0x87, 0x3c,
  0xb9, 0x98, 0x52, 0x3e, 0x77, 0x46, 0xe3, 0x3d, 0xa9, 0x50, 0x1e, 0xbc,
  0xe1, 0xd1, 0x12, 0xbd, 0xc9, 0xa1, 0xbd, 0x3d, 0x72, 0x1a, 0x9a, 0xbd,
  0x3a, 0x2a, 0x1c, 0x3e, 0x78, 0xc8, 0x60, 0x3e, 0xe9, 0x69, 0x9a, 0x3d,
  0x16, 0xbe, 0x34, 0xbe, 0xa3, 0x10, 0xc3, 0xbe, 0x44, 0xc2, 0x2a, 0x3e,
  0xa6, 0x9a, 0x8f, 0xbe, 0x95, 0xed, 0x35, 0x3d, 0x49, 0xb1, 0x78, 0xbe,
  0x94, 0xa3, 0x27, 0x3e, 0xbc, 0x47, 0x0d, 0xbe, 0x21, 0x5f, 0x31, 0x3e,
  0xda, 0x16, 0x49, 0xbe, 0xe2, 0x16, 0x66, 0x3d, 0x44, 0x2e, 0x93, 0x3e,
  0x9b, 0x43, 0x8f, 0xbd, 0x85, 0x50, 0x8b, 0x3d, 0x94, 0xe6, 0x0f, 0x3d,
  0x90, 0x8a, 0x41, 0x3e, 0x19, 0x30, 0x7c, 0xbd, 0x83, 0xdd, 0x32, 0x3e,
  0x58, 0x28, 0x28, 0x3e, 0xef, 0x81, 0x8d, 0xbd, 0x5e, 0x45, 0x25, 0xbd,
  0x99, 0x41, 0x13, 0xbe, 0xda, 0x4c, 0xfb, 0xbb, 0x58, 0xf4, 0xe3, 0x3d,
  0x4c, 0x3e, 0xa9, 0x3d, 0x08, 0xd4, 0x1f, 0x3d, 0x73, 0xc7, 0x3f, 0xbd,
  0x61, 0x67, 0x11, 0x3e, 0xb8, 0xd4, 0x6b, 0xbd, 0xb5, 0xa2, 0x1a, 0x3d,
  0x98, 0x51, 0x68, 0xbd, 0xf7, 0x71, 0xa7, 0x3d, 0xe5, 0xa4, 0xa4, 0xbd,
  0x4b, 0xdb, 0xac, 0x3d, 0x86, 0xa7, 0x27, 0x3e, 0x8d, 0xd5, 0xd7, 0x3c,
  0x01, 0xe5, 0x3f, 0xbe, 0xac, 0xe8, 0x38, 0xbe, 0x7c, 0x5d, 0x19, 0x3d,
  0xc4, 0x54, 0x31, 0xbe, 0x00, 0x0b, 0x73, 0xbe, 0xd3, 0x90, 0x81, 0x3c,
  0x91, 0x82, 0x9c, 0xbe, 0x6e, 0x11, 0xe7, 0x3d, 0xc7, 0xe5, 0x2a, 0x3d,
  0xa4, 0x9e, 0xf3, 0x3d, 0x56, 0xe0, 0x95, 0xbd, 0x4f, 0xf1, 0xd9, 0x3d,
  0xa1, 0x53, 0x26, 0xbe, 0x62, 0x04, 0x3b, 0x3d, 0xf7, 0xd3, 0x47, 0xbd,
  0xea, 0x1c, 0x57, 0x3c, 0x73, 0x2d, 0x04, 0xbe, 0x5b, 0x50, 0xa5, 0xbb,
  0x9b, 0x74, 0x87, 0xbe, 0x8a, 0x55, 0xf9, 0x3d, 0x35, 0xbf, 0x91, 0xbd,
  0x70, 0x80, 0x02, 0xbd, 0x84, 0xf9, 0xda, 0x3d, 0xb2, 0x7e, 0xc0, 0xbe,
  0x63, 0x67, 0x6a, 0xbe, 0xa1, 0xdd, 0x0e, 0x3d, 0x47, 0x83, 0x0e, 0x3d,
  0x4e, 0x0f, 0x3a, 0x3c, 0xaa, 0x68, 0xdd, 0xbc, 0x34, 0x56, 0x41, 0xbe,
  0x85, 0x6e, 0x80, 0x3d, 0x02, 0xfa, 0xcc, 0xbe, 0xe6, 0xc1, 0xd4, 0xbc,
  0x65, 0x68, 0xdf, 0x3c, 0xe2, 0x13, 0x90, 0x3e, 0x22, 0xa0, 0x5d, 0x3e,
  0xc1, 0x66, 0xd0, 0xbe, 0x2e, 0x85, 0x8b, 0x3e, 0xdd, 0xa4, 0xb9, 0xbc,
  0x5a, 0x56, 0xdb, 0x3d, 0xcb, 0x72, 0x5a, 0x3b, 0x8b, 0x2e, 0xa7, 0x3d,
  0xd4, 0x04, 0x47, 0xbe, 0x78, 0x60, 0xdb, 0xbc, 0x75, 0x53, 0x1f, 0xbb,
  0xe1, 0xea, 0x3e, 0x3d, 0xb6, 0x36, 0x18, 0x3e, 0xe3, 0xb9, 0x16, 0xbe,
  0xf7, 0xec, 0xba, 0x3c, 0x91, 0x3b, 0x0e, 0x3d, 0x3d, 0x10, 0x9e, 0x3e,
  0xe9, 0x7a, 0x88, 0xbd, 0xfb, 0xe3, 0x56, 0xbe, 0x75, 0x54, 0x8e, 0x3e,
  0x6e, 0x89, 0x0a, 0xbd, 0x97, 0x20, 0x0e, 0x3e, 0xd1, 0x0f, 0xa7, 0xbe,
  0x8b, 0xd3, 0x37, 0xbd, 0x94, 0xd3, 0xbe, 0xbd, 0x09, 0x13, 0xf4, 0xbc,
  0x1e, 0x73, 0x3b, 0xbd, 0xbd, 0x0a, 0x8d, 0x3c, 0xb1, 0x2e, 0x97, 0x3d,
  0xff, 0xaf, 0xf6, 0xbd, 0x8b, 0x12, 0x25, 0x3d, 0x80, 0x3d, 0xd8, 0x3c,
  0xe8, 0x44, 0x20, 0x3e, 0x4f, 0x8c, 0x42, 0x3e, 0xf1, 0x5f, 0xa7, 0xbe,
  0xb6, 0x49, 0x2d, 0x3e, 0xb3, 0x2b, 0x8b, 0xbc, 0xf2, 0xa3, 0x5a, 0xbd,
  0xac, 0x66, 0xa5, 0xbd, 0x5d, 0x85, 0xb2, 0xbd, 0xa4, 0x17, 0xb7, 0x3c,
  0xcc, 0xfe, 0x4f, 0x3e, 0x38, 0x15, 0x1d, 0xbe, 0x59, 0xa5, 0x81, 0xbd,
  0x46, 0xa4, 0x26, 0xbd, 0x3b, 0xa3, 0xab, 0x3d, 0x27, 0x43, 0xf6, 0xbb,
  0x18, 0xc5, 0x9a, 0xbd, 0x66, 0x6a, 0x0a, 0x3e, 0xd8, 0x15, 0x85, 0x3d,
  0x23, 0xe5, 0xef, 0xbe, 0xdc, 0x81, 0xca, 0x3e, 0x1a, 0x20, 0x5b, 0x3b,
  0x05, 0x68, 0xd2, 0x3d, 0x29, 0xea, 0x34, 0xbe, 0xea, 0xb1, 0x2d, 0x3c,
  0xbf, 0x01, 0x7a, 0x3d, 0xc0, 0x73, 0x75, 0xbe, 0x83, 0x31, 0x84, 0xbd,
  0xaa, 0x67, 0x19, 0xbd, 0x9e, 0x86, 0x1d, 0x3e, 0xfb, 0xb3, 0xe9, 0xbd,
  0x67, 0x4e, 0x35, 0x3c, 0x7f, 0xe3, 0xb8, 0xbd, 0xf8, 0x85, 0x0a, 0x3e,
  0xd1, 0x43, 0x7e, 0xbd, 0x33, 0x93, 0x06, 0xbf, 0xb5, 0xff, 0x77, 0x3e,
  0x13, 0xaa, 0xcc, 0x3d, 0xe3, 0xea, 0xda, 0xb8, 0xc4, 0x42, 0xa4, 0xbe,
  0x1d, 0x7a, 0xef, 0x3b, 0xd7, 0x71, 0x8a, 0xbd, 0x6c, 0xf0, 0x77, 0x3d,
  0x92, 0x47, 0xe3, 0xbc, 0xf2, 0xa1, 0x56, 0x3d, 0xff, 0x8d, 0x0e, 0x3e,
  0xde, 0xa6, 0x49, 0xbe, 0x16, 0xaa, 0x15, 0x3d, 0xfa, 0x50, 0xf1, 0xbd,
  0x4c, 0x5e, 0xf9, 0xbb, 0x6d, 0xe0, 0x0e, 0xbd, 0xac, 0x36, 0xdc, 0xbe,
  0xd6, 0x6e, 0x88, 0x3d, 0x72, 0xfa, 0x89, 0xbd, 0xc5, 0x81, 0xab, 0x3d,
  0x73, 0xcf, 0xbe, 0xbd, 0xec, 0x20, 0x6e, 0x3d, 0x2e, 0x57, 0x08, 0xbe,
  0x5e, 0x84, 0x85, 0x3d, 0x00, 0xc0, 0x80, 0xbc, 0xc0, 0xa8, 0x41, 0x3d,
  0x54, 0xe2, 0x4d, 0x3d, 0x92, 0xde, 0xe7, 0x3c, 0x41, 0x3a, 0xdc, 0x3c,
  0xed, 0x05, 0x4c, 0xbb, 0x8d, 0x4f, 0x5f, 0x3d, 0xd1, 0x5d, 0x10, 0x3e,
  0xb2, 0xf4, 0xad, 0xbe, 0x5f, 0xc7, 0x09, 0x3e, 0xd0, 0xc5, 0x9e, 0x3e,
  0x56, 0x20, 0x54, 0x3d, 0x6e, 0xb7, 0xa3, 0xbd, 0x03, 0xaa, 0x1a, 0xbe,
  0xc0, 0xae, 0xc9, 0xbc, 0x78, 0x1c, 0x75, 0xbe, 0xd7, 0x97, 0x43, 0x3d,
  0x54, 0xf5, 0xa6, 0xbe, 0xec, 0x5a, 0x0e, 0x3d, 0x39, 0xd0, 0x62, 0xbe,
  0x25, 0x8e, 0xc0, 0x3d, 0x91, 0x92, 0xfc, 0xbd, 0x7e, 0x43, 0xcb, 0x3e,
  0x02, 0xc1, 0x6e, 0x3e, 0xe1, 0x38, 0xc6, 0xbe, 0x22, 0x31, 0x5b, 0xbd,
  0x89, 0x2f, 0x51, 0x3e, 0xa4, 0x75, 0x8a, 0x3d, 0x37, 0x00, 0xea, 0xbd,
  0x39, 0xc7, 0x57, 0x3d, 0xe0, 0x67, 0x30, 0xbd, 0x3e, 0xbb, 0x3e, 0xbd,
  0x51, 0x8f, 0x09, 0x3e, 0x63, 0xe9, 0xfc, 0xbe, 0x1c, 0x6b, 0x8b, 0x3d,
  0xa1, 0xa3, 0x49, 0x3b, 0xd5, 0x0e, 0x3a, 0x3c, 0x6f, 0xca, 0x3b, 0xbb,
  0xe0, 0x9b, 0x8a, 0xbd, 0x6f, 0x72, 0x89, 0xbb, 0xe0, 0x37, 0xe6, 0xbe,
  0xd8, 0xaf, 0x4c, 0x3e, 0xf1, 0xc7, 0x21, 0x3e, 0x9e, 0xd6, 0x0d, 0x3e,
  0x3b, 0x3c, 0x6d, 0xbe, 0xf0, 0xf6, 0x22, 0xbe, 0xf8, 0x3b, 0x71, 0xbd,
  0x1b, 0xfe, 0x29, 0xbc, 0x12, 0xa1, 0xbf, 0x3d, 0x78, 0x6e, 0x72, 0xbe,
  0x17, 0xf5, 0x49, 0x3d, 0x89, 0xf6, 0xa2, 0xbc, 0x9b, 0xee, 0x15, 0xbc,
  0xc3, 0x20, 0x1b, 0x3d, 0x86, 0xaf, 0xb8, 0xbd, 0x91, 0x46, 0xf9, 0x3d,
  0x33, 0xc0, 0x6c, 0xbe, 0x4c, 0x93, 0x9c, 0x3e, 0xe2, 0xb0, 0x49, 0x3e,
  0xc6, 0xb3, 0x04, 0x3e, 0xd8, 0x95, 0xcc, 0xbd, 0x21, 0x44, 0x90, 0x3d,
  0xca, 0x92, 0x03, 0x3e, 0x46, 0xa6, 0x31, 0x3d, 0x00, 0x52, 0x03, 0x3d,
  0x95, 0x11, 0xfb, 0x3d, 0x20, 0x64, 0xd2, 0x3d, 0x9f, 0xec, 0xcc, 0xbe,
  0x9b, 0xa6, 0xf5, 0x3c, 0x82, 0x06, 0x6b, 0x3d, 0x1d, 0x5a, 0x9e, 0x3d,
  0x4a, 0x26, 0x2e, 0x3e, 0x98, 0x10, 0xde, 0xbe, 0x31, 0x18, 0xb6, 0x3d,
  0x73, 0x31, 0x88, 0x3c, 0x14, 0x69, 0x9e, 0x3c, 0xb6, 0xa5, 0x0c, 0xbe,
  0xf0, 0x2b, 0xf6, 0xbd, 0x7c, 0x2f, 0x04, 0xbc, 0x09, 0xd8, 0x8b, 0xbb,
  0xc1, 0x57, 0x10, 0x3e, 0x24, 0x16, 0x2d, 0xbe, 0x71, 0xa5, 0xa8, 0x3d,
  0xfc, 0xbb, 0xf6, 0xbd, 0x84, 0xbd, 0x8d, 0x3c, 0x32, 0x5f, 0xa3, 0x3d,
  0x86, 0xb8, 0x24, 0x3c, 0x32, 0xac, 0x9b, 0x3e, 0xee, 0x25, 0x6f, 0xbe,
  0x20, 0x99, 0x8e, 0x3e, 0x8c, 0xa8, 0xf3, 0x3d, 0x87, 0xe8, 0xb2, 0xbd,
  0xa3, 0xb3, 0xb6, 0xbc, 0x46, 0x70, 0x03, 0xbe, 0xde, 0x1d, 0x6f, 0xbd,
  0x44, 0xc5, 0x28, 0xbc, 0x81, 0x12, 0xef, 0x3d, 0x02, 0x2b, 0x3f, 0xbd,
  0xcf, 0x5a, 0x07, 0xbe, 0x41, 0xc1, 0xb3, 0xbd, 0xf1, 0x84, 0x1b, 0x3d,
  0xc0, 0xc2, 0x76, 0xba, 0x82, 0x54, 0x54, 0x3d, 0xa0, 0xe2, 0x62, 0x3e,
  0xe5, 0xb4, 0xa3, 0xbe, 0xcb, 0x2d, 0x1b, 0xbe, 0x43, 0x17, 0x32, 0x3e,
  0xaa, 0x69, 0x64, 0xbc, 0xc3, 0x04, 0x92, 0xbd, 0x12, 0xe3, 0xfe, 0xbd,
  0x3a, 0x1c, 0xf6, 0xba, 0xa0, 0x57, 0x0b, 0xbe, 0x10, 0x73, 0x07, 0x3e,
  0x01, 0x58, 0x31, 0x3d, 0xf6, 0x5a, 0x83, 0xbd, 0xb9, 0x1a, 0xd2, 0xbd,
  0x9a, 0x48, 0x85, 0xbd, 0xee, 0xfd, 0xfb, 0xbc, 0x96, 0xf4, 0x84, 0xbe,
  0x65, 0x06, 0x2e, 0x3e, 0x62, 0xb7, 0xb0, 0xbe, 0x6f, 0x55, 0x83, 0x3d,
  0xaf, 0xa1, 0x92, 0x3e, 0x54, 0xf2, 0x1a, 0xbb, 0x9b, 0x35, 0x89, 0xbe,
  0x14, 0xb3, 0xc6, 0xbe, 0x88, 0xc2, 0xe6, 0xbe, 0xed, 0xf9, 0xb4, 0xbc,
  0xac, 0x8e, 0x24, 0x3e, 0x38, 0x4b, 0x55, 0x3d, 0xde, 0xd2, 0x04, 0x3d,
  0x0a, 0x15, 0xde, 0xbe, 0xc9, 0x8c, 0xb0, 0x3d, 0x69, 0x6f, 0xda, 0xba,
  0xef, 0xe6, 0xfe, 0x3d, 0x79, 0xbe, 0x72, 0x3e, 0xda, 0x13, 0xe3, 0xbe,
  0x9f, 0x3f, 0x0e, 0x3f, 0x33, 0xe0, 0x72, 0x3e, 0x8f, 0xbe, 0x11, 0x3e,
  0xc0, 0x79, 0xb0, 0xbe, 0x3e, 0xf7, 0xa1, 0xbc, 0x2d, 0xec, 0xc9, 0xbe,
  0x95, 0x23, 0x68, 0x3c, 0xe9, 0x0b, 0x78, 0x3d, 0xad, 0x30, 0xc8, 0xbe,
  0xb0, 0x1f, 0xba, 0xbc, 0xdf, 0x85, 0xa5, 0xbe, 0x3a, 0x84, 0x08, 0x3c,
  0xac, 0x3a, 0xf8, 0x3c, 0x65, 0x80, 0xc2, 0x3e, 0x4c, 0xbc, 0xf4, 0x3d,
  0x76, 0x85, 0xd4, 0xbe, 0x94, 0x98, 0x98, 0x3e, 0xe1, 0x45, 0x5e, 0x3d,
  0x44, 0xdf, 0x91, 0x3d, 0x56, 0x2c, 0xda, 0xbe, 0x59, 0x36, 0x08, 0x3e,
  0x15, 0xcc, 0xf9, 0xbd, 0xba, 0x60, 0x0d, 0xbe, 0x25, 0xeb, 0xf1, 0x3d,
  0xbf, 0x41, 0xb1, 0xbe, 0x8e, 0xb5, 0xa5, 0x3d, 0xc4, 0x36, 0x94, 0xbe,
  0x26, 0xf6, 0xa9, 0xbb, 0x5e, 0xea, 0x0f, 0x3d, 0x7a, 0x0f, 0xcf, 0x3e,
  0x52, 0x24, 0x86, 0x3d, 0x72, 0xf1, 0xd3, 0xbe, 0x31, 0xc3, 0xc9, 0x3d,
  0xf8, 0x71, 0x7e, 0x3d, 0x01, 0xd1, 0x8f, 0x3d, 0x7d, 0xc7, 0x13, 0xbe,
  0x55, 0x01, 0x8b, 0x3b, 0x88, 0xcf, 0x6c, 0xbe, 0xaf, 0x31, 0x6c, 0x3a,
  0x7c, 0x0b, 0xbb, 0x3d, 0x10, 0x84, 0x09, 0xbe, 0xfd, 0xee, 0xb7, 0x3d,
  0x04, 0xe5, 0xa3, 0xbe, 0x29, 0x37, 0x02, 0xbc, 0x54, 0x36, 0x96, 0x3c,
  0x77, 0xd4, 0x32, 0x3e, 0x7e, 0x6a, 0x73, 0x3e, 0x6d, 0xc0, 0x08, 0xbf,
  0x98, 0x73, 0x57, 0x3e, 0x64, 0x3c, 0x93, 0x3d, 0x50, 0x4c, 0x92, 0x3d,
  0xc2, 0x1a, 0x28, 0xbe, 0xb4, 0x18, 0x0e, 0xbe, 0x9d, 0x95, 0x01, 0xbe,
  0x5e, 0xf6, 0x9b, 0xbd, 0x3e, 0x00, 0x9f, 0x3d, 0x04, 0x83, 0xcc, 0xbd,
  0xe4, 0x20, 0xce, 0x3d, 0x2a, 0x0d, 0xa1, 0xbe, 0x5f, 0x9b, 0x53, 0x3d,
  0xd6, 0xc2, 0xf3, 0x3d, 0x78, 0xe5, 0xea, 0x3c, 0xda, 0x44, 0xbb, 0x3e,
  0x8d, 0x72, 0xca, 0xbe, 0x39, 0x74, 0xe3, 0x3d, 0x0d, 0x46, 0x17, 0x3e,
  0x7f, 0xea, 0x1d, 0x3d, 0x93, 0x65, 0x8f, 0xbe, 0x10, 0x91, 0xe1, 0xbd,
  0x84, 0x99, 0x87, 0xbe, 0xff, 0x4b, 0xd9, 0xbd, 0x95, 0xc1, 0x82, 0x3d,
  0xc7, 0xfb, 0x71, 0xbe, 0x45, 0xaf, 0x88, 0x3d, 0x2f, 0x49, 0x4d, 0xbe,
  0xab, 0xf6, 0x62, 0x3d, 0x2b, 0x4e, 0x81, 0x3d, 0x3d, 0x6e, 0x56, 0xbe,
  0xd1, 0x4f, 0x3c, 0x3e, 0x0b, 0x71, 0xda, 0xbe, 0xc1, 0xde, 0x56, 0x3e,
  0xae, 0xaf, 0x4d, 0x3e, 0xbc, 0x9f, 0xd4, 0xbc, 0xe0, 0x4d, 0xd8, 0xbd,
  0xda, 0x0a, 0xcc, 0xbc, 0x6b, 0xf4, 0x1c, 0xbe, 0x20, 0xa9, 0x3b, 0xbe,
  0x6e, 0x56, 0xa3, 0x3d, 0x37, 0xb4, 0xb3, 0xbd, 0x7c, 0x95, 0x2e, 0xbd,
  0xfb, 0x50, 0x81, 0xbe, 0x05, 0x19, 0xde, 0xbd, 0x54, 0x5c, 0x3c, 0xbc,
  0xb6, 0x1b, 0xff, 0x3d, 0xc9, 0xdb, 0x0d, 0xbe, 0x4a, 0xf2, 0x1e, 0x40,
  0x9a, 0x94, 0x62, 0xbc, 0x55, 0xa5, 0xa1, 0xbe, 0xcc, 0x0e, 0xdc, 0xbd,
  0x86, 0x27, 0xeb, 0x3d, 0x43, 0x86, 0x10, 0x3d, 0x56, 0x27, 0x20, 0x3e,
  0x35, 0x86, 0xfb, 0xbd, 0x92, 0xa9, 0x98, 0xbd, 0xa8, 0x3b, 0xa6, 0x3c,
  0xae, 0xaa, 0x97, 0xbe, 0x30, 0xde, 0xe2, 0x3d, 0x2a, 0xf6, 0xf1, 0xbd,
  0xcc, 0x75, 0xb4, 0xbd, 0x96, 0xcf, 0x7b, 0xbe, 0x57, 0x5e, 0xbb, 0x3d,
  0xfb, 0x91, 0x26, 0x40, 0x8a, 0x3f, 0x1b, 0xbc, 0x33, 0xfe, 0x15, 0xbe,
  0x9d, 0x5b, 0x8e, 0xbd, 0x8f, 0x3a, 0xae, 0x3d, 0x0a, 0xf5, 0x47, 0x3e,
  0x36, 0xaa, 0x31, 0x3e, 0x95, 0xaf, 0x15, 0xbe, 0xfe, 0xa9, 0xf0, 0xbd,
  0xc9, 0x99, 0x29, 0xbd, 0x30, 0x46, 0x1d, 0x3b, 0x91, 0xcd, 0x9f, 0x3d,
  0xdd, 0xce, 0x00, 0xbd, 0x87, 0x71, 0xc4, 0x3d, 0x12, 0xed, 0xf9, 0xbe,
  0x18, 0x51, 0x0b, 0xbe, 0x42, 0x1d, 0x2f, 0x40, 0x51, 0x9c, 0x66, 0xbe,
  0x01, 0xba, 0x2f, 0xbd, 0x4b, 0x6c, 0xf1, 0xbd, 0x28, 0xc2, 0x3f, 0xbb,
  0xff, 0x9e, 0xfa, 0xbc, 0x01, 0xb5, 0x6b, 0x3e, 0x1c, 0x0b, 0x68, 0x3e,
  0x9e, 0xdf, 0x92, 0xbd, 0xc7, 0x6d, 0x3a, 0xbd, 0x47, 0x4f, 0x09, 0xbe,
  0xe7, 0x3b, 0x24, 0x3e, 0xe6, 0xc4, 0x98, 0xbd, 0xed, 0x79, 0xfe, 0x3d,
  0x53, 0x88, 0x6a, 0xbe, 0xee, 0x87, 0x5f, 0x3d, 0x12, 0x2b, 0x0d, 0x40,
  0x7b, 0x1d, 0x9b, 0x3d, 0x0d, 0x38, 0xeb, 0xb7, 0xa3, 0xb0, 0xf0, 0xbd,
  0xf9, 0xfe, 0xad, 0x3b, 0x7c, 0xd2, 0xea, 0x3a, 0x83, 0x23, 0x92, 0x3e,
  0x50, 0x07, 0x7b, 0x3d, 0x78, 0x76, 0xd2, 0xbd, 0x6d, 0x95, 0x67, 0x3d,
  0x36, 0xd8, 0x1a, 0xbe, 0x41, 0x89, 0x8b, 0x3b, 0x76, 0xdb, 0xdc, 0xbc,
  0x6a, 0x3f, 0x2a, 0xbc, 0xb5, 0xd8, 0xb7, 0xbd, 0x6e, 0xb3, 0xcf, 0x3d,
  0x97, 0x7a, 0x2b, 0x40, 0x7d, 0x1e, 0xd4, 0x3d, 0xfe, 0x13, 0xd5, 0x3c,
  0x59, 0x2e, 0x29, 0xbe, 0x42, 0xc5, 0xa7, 0x3d, 0x8e, 0x78, 0x78, 0xbd,
  0x47, 0xa2, 0x87, 0x3e, 0x7c, 0x8a, 0x0e, 0xbe, 0xc9, 0xc0, 0xd3, 0xbd,
  0x65, 0xd0, 0x43, 0x3b, 0x08, 0x90, 0x97, 0xbd, 0x30, 0x8b, 0x8c, 0x3d,
  0x97, 0xb7, 0x8e, 0xbd, 0x29, 0x80, 0xf0, 0xbc, 0x30, 0xb3, 0xa0, 0x3d,
  0x04, 0x92, 0x0d, 0x3e, 0x3e, 0x02, 0xe1, 0x3f, 0x6f, 0x85, 0xcb, 0xbd,
  0xa4, 0x45, 0xa4, 0xbd, 0xf7, 0xbb, 0x76, 0xbd, 0x83, 0x28, 0x08, 0x3b,
  0xc4, 0x49, 0x98, 0xbd, 0xac, 0xc3, 0x29, 0x3e, 0x04, 0xf6, 0x63, 0xbe,
  0xcc, 0x3e, 0x57, 0x3c, 0xaa, 0x89, 0x89, 0x3d, 0x85, 0xa0, 0x8d, 0xbe,
  0xae, 0xa0, 0x71, 0x3d, 0x44, 0x93, 0x0f, 0xbd, 0x64, 0x6e, 0x8f, 0x3d,
  0x5c, 0x91, 0x00, 0x3e, 0xc5, 0x39, 0x8d, 0x3d, 0xbe, 0x94, 0x07, 0x40,
  0xa3, 0x1a, 0x0b, 0x3e, 0x5d, 0xaf, 0xeb, 0xbd, 0xd6, 0xeb, 0x8d, 0xbd,
  0xc6, 0xfe, 0xc5, 0x3d, 0x30, 0xda, 0xf5, 0x3c, 0x18, 0x7a, 0x0f, 0x3e,
  0x38, 0x4b, 0x82, 0xbc, 0xb3, 0x61, 0x47, 0xbc, 0x0f, 0x6d, 0xf7, 0x3d,
  0xb2, 0xc2, 0x86, 0x3d, 0xb4, 0x1e, 0xc0, 0x3d, 0x76, 0xf6, 0x3c, 0x3c,
  0xec, 0xbc, 0x92, 0x3c, 0x3f, 0xc3, 0x76, 0x3e, 0xb8, 0xbf, 0x1c, 0x3e,
  0x19, 0xa8, 0x0d, 0x3a, 0x86, 0xf5, 0x0a, 0x3d, 0xfe, 0x0f, 0x56, 0xbd,
  0x13, 0xb5, 0xfc, 0xbc, 0x78, 0x01, 0x15, 0x3e, 0x0c, 0xcf, 0x07, 0xbe,
  0x76, 0xa7, 0xae, 0x3d, 0xec, 0x3a, 0x98, 0x3c, 0x8b, 0x94, 0x8f, 0xbe,
  0xef, 0x4f, 0x66, 0x3c, 0xad, 0x67, 0xd3, 0xbe, 0x89, 0x42, 0xd2, 0x3d,
  0xc7, 0xba, 0x70, 0xbe, 0x44, 0x9a, 0x0f, 0xbe, 0x42, 0xbf, 0xdd, 0x3d,
  0x09, 0x54, 0xf9, 0x3d, 0x35, 0x4f, 0x5b, 0xbe, 0x4e, 0x61, 0x1f, 0x3e,
  0x01, 0xed, 0xd0, 0x3d, 0xab, 0x1a, 0xef, 0xbd, 0xa7, 0x92, 0x2e, 0x3d,
  0xe0, 0x5b, 0xdc, 0xbc, 0xac, 0x02, 0x2b, 0x3e, 0x88, 0x9d, 0xc5, 0xbb,
  0x44, 0xf3, 0x5b, 0xbd, 0xae, 0x27, 0x04, 0xbe, 0x1c, 0x01, 0x22, 0x3d,
  0x76, 0xcb, 0xfb, 0xbc, 0x6f, 0xba, 0xce, 0xbc, 0x1d, 0xaf, 0x8b, 0xbd,
  0x53, 0xb7, 0x74, 0xbb, 0xe6, 0x85, 0x47, 0x3e, 0xd9, 0x8a, 0x54, 0xbe,
  0xc0, 0xaf, 0xfa, 0xbc, 0xa9, 0xcb, 0x34, 0xbd, 0x31, 0xae, 0x96, 0xbe,
  0x2b, 0x44, 0x81, 0xbd, 0x6d, 0x6f, 0x36, 0x3e, 0x46, 0x75, 0x16, 0x3e,
  0x57, 0xf9, 0x49, 0xbc, 0x57, 0x69, 0x0e, 0xbc, 0xfb, 0xd4, 0x07, 0x3d,
  0x0e, 0x9d, 0x9d, 0xbc, 0x8d, 0x35, 0x4a, 0x3e, 0xc4, 0xab, 0xbb, 0xbc,
  0xcb, 0x32, 0x24, 0x3e, 0x70, 0xcc, 0x02, 0x3e, 0x12, 0x5f, 0xe5, 0xb9,
  0x56, 0x79, 0x96, 0xbd, 0x7f, 0x97, 0x83, 0xbc, 0x07, 0x72, 0xb7, 0xba,
  0x2c, 0x9e, 0xd4, 0xbc, 0xb7, 0xb2, 0x0d, 0x3e, 0x74, 0x91, 0x85, 0x3d,
  0xaf, 0x3e, 0x2e, 0x3e, 0xe7, 0xe3, 0xec, 0xbc, 0x5a, 0x12, 0x30, 0x3d,
  0xfe, 0x53, 0xfe, 0x3c, 0x90, 0xcc, 0x33, 0x3b, 0x07, 0x80, 0x3a, 0x3e,
  0x21, 0xed, 0x16, 0xbe, 0x38, 0xb6, 0x85, 0x3d, 0x26, 0x9a, 0x97, 0x3d,
  0xf5, 0xdf, 0x1b, 0x3d, 0x42, 0xc7, 0xa2, 0x3d, 0x5a, 0x4d, 0x03, 0x3e,
  0x23, 0x57, 0x8b, 0xbc, 0xa0, 0xcd, 0x11, 0xbd, 0x34, 0x23, 0xc1, 0x3d,
  0x22, 0x75, 0x28, 0xbe, 0x9b, 0x56, 0x4c, 0x3e, 0xe3, 0xf5, 0x9f, 0x3c,
  0xd0, 0x56, 0x82, 0xbc, 0x2c, 0xfb, 0x0c, 0xbe, 0x6d, 0x8d, 0xbe, 0xbd,
  0x9e, 0xa3, 0xee, 0x3d, 0xac, 0xf6, 0x39, 0x3d, 0xab, 0xd5, 0x2c, 0x3e,
  0xa4, 0xbb, 0xd5, 0x3d, 0xab, 0x8d, 0x9c, 0xbd, 0x76, 0x18, 0xd9, 0xbc,
  0x63, 0x99, 0x13, 0x3e, 0x2d, 0x8d, 0xc4, 0x3d, 0xc5, 0x24, 0x17, 0xbc,
  0x2c, 0x2b, 0x64, 0xbd, 0xd7, 0xb4, 0x96, 0xbd, 0xf1, 0xc8, 0x2a, 0x3e,
  0x8b, 0x14, 0xbe, 0xbd, 0x3e, 0x08, 0x32, 0xbe, 0xcb, 0xc3, 0xea, 0x3c,
  0xdd, 0xfd, 0xf6, 0xbc, 0x1a, 0xd5, 0x2a, 0x3e, 0x82, 0x8d, 0xa3, 0xbd,
  0x4e, 0xd9, 0x1a, 0x3d, 0x2e, 0x07, 0x46, 0x3e, 0xd6, 0x90, 0xef, 0x3d,
  0x0d, 0x4f, 0x35, 0x3e, 0x87, 0xf4, 0x38, 0xbe, 0x4f, 0x93, 0x7f, 0x3a,
  0x67, 0xbf, 0xcb, 0xbd, 0xcb, 0x3a, 0x86, 0xbd, 0x50, 0x10, 0x89, 0xbb,
  0xa5, 0xf8, 0x1a, 0x3e, 0x97, 0x20, 0xc9, 0xbd, 0x8b, 0x72, 0x8a, 0xbe,
  0x44, 0xd4, 0xa4, 0x3d, 0xb2, 0x01, 0x1a, 0xbd, 0x94, 0x36, 0x57, 0xbc,
  0x7d, 0xfb, 0x1a, 0xbd, 0xbb, 0xd8, 0x10, 0xbe, 0xf1, 0xee, 0x11, 0x3e,
  0x00, 0x72, 0x58, 0x3e, 0x20, 0x02, 0xd6, 0x3f, 0x22, 0x8c, 0x16, 0x3b,
  0xfe, 0xd1, 0x16, 0xbd, 0x10, 0x78, 0x2a, 0xbd, 0x97, 0x95, 0x6c, 0x3c,
  0x44, 0xed, 0x22, 0xbe, 0x62, 0x2c, 0x31, 0x3e, 0xb7, 0x10, 0x40, 0xbd,
  0x77, 0xcd, 0xba, 0xbd, 0x38, 0xcc, 0x82, 0x3b, 0x07, 0x0e, 0x0e, 0xbe,
  0xf5, 0x20, 0x71, 0x3d, 0xee, 0xd1, 0x4c, 0xbe, 0x94, 0x79, 0x50, 0xbd,
  0x4e, 0x06, 0x39, 0xbd, 0x24, 0x70, 0xa5, 0x3d, 0xa5, 0x8d, 0x01, 0x40,
  0xbc, 0x6f, 0x22, 0x3f, 0xe4, 0x03, 0xd3, 0xbc, 0x4d, 0xa9, 0x06, 0xbe,
  0x52, 0x22, 0x46, 0x3d, 0x40, 0x9f, 0x2f, 0xbe, 0x37, 0x43, 0x63, 0x3e,
  0x01, 0xe8, 0x87, 0xbe, 0x8a, 0xb6, 0xd1, 0x3c, 0xe4, 0x6d, 0x83, 0xbd,
  0x85, 0x59, 0xa0, 0x3c, 0x0b, 0xe4, 0x1a, 0x3e, 0xee, 0x8b, 0x07, 0x3d,
  0x35, 0xe8, 0x8e, 0xbd, 0xee, 0xa8, 0xee, 0x3d, 0x7e, 0x65, 0xee, 0xbd,
  0x70, 0x5b, 0x07, 0x40, 0xf9, 0x74, 0xc9, 0x3e, 0xfd, 0xaf, 0xf5, 0xbd,
  0x27, 0x2a, 0x50, 0x3d, 0x4d, 0xab, 0xd4, 0xbd, 0x2d, 0xc6, 0xd9, 0x3d,
  0x8e, 0xd7, 0xbf, 0x3d, 0xc3, 0xa9, 0xca, 0xbd, 0x51, 0xe1, 0x4f, 0xbe,
  0xc9, 0x48, 0x97, 0xbe, 0x37, 0x12, 0x13, 0xbe, 0xc8, 0x00, 0x88, 0xbd,
  0xda, 0x39, 0x7f, 0xbd, 0x24, 0x75, 0xd8, 0xbd, 0x50, 0x53, 0x3e, 0x3e,
  0xee, 0xe4, 0x26, 0x3e, 0xe6, 0x84, 0x4a, 0x40, 0xb0, 0xd3, 0x0c, 0x3f,
  0x08, 0x63, 0xa6, 0xbd, 0xf8, 0xdf, 0xcf, 0xbd, 0x9c, 0x45, 0x9f, 0x3c,
  0x0e, 0x80, 0x31, 0xbd, 0x57, 0xef, 0x1a, 0xbc, 0xaf, 0x00, 0x17, 0x3d,
  0x3c, 0x08, 0x5c, 0xbe, 0x24, 0x11, 0x99, 0xbd, 0xc8, 0xaf, 0x3e, 0xbb,
  0x7f, 0xec, 0xfd, 0x3d, 0x7d, 0x0e, 0xf1, 0xbe, 0xa0, 0xa3, 0xd1, 0xbd,
  0xd6, 0x81, 0xcb, 0xbc, 0xd4, 0x13, 0x18, 0x3e, 0x05, 0x8f, 0x05, 0x40,
  0xe5, 0x6c, 0x18, 0x3e, 0xb5, 0xe7, 0x2f, 0xbd, 0x5a, 0xb1, 0x56, 0x3d,
  0x7e, 0x8d, 0x64, 0x3d, 0x68, 0xf3, 0x01, 0xbe, 0xf6, 0x11, 0x87, 0x3e,
  0x5f, 0xc4, 0x43, 0xbe, 0xf8, 0xa0, 0x05, 0xbe, 0xe9, 0xb4, 0xb0, 0x3d,
  0x5f, 0x72, 0x4d, 0xbe, 0x68, 0xa0, 0x1a, 0x3e, 0x0b, 0x2b, 0xc2, 0xbd,
  0x5b, 0xac, 0x76, 0x3d, 0x83, 0x5a, 0x67, 0x3e, 0x28, 0xc4, 0x4c, 0x3e,
  0xeb, 0x24, 0x64, 0x40, 0x6b, 0xb8, 0x46, 0x3e, 0x49, 0x96, 0xff, 0xbc,
  0x93, 0xea, 0x78, 0xbd, 0x22, 0xc2, 0x9e, 0x3d, 0xdd, 0xd6, 0xca, 0xbc,
  0x04, 0x18, 0x89, 0x3e, 0xd8, 0x5b, 0x04, 0xbe, 0xd1, 0x8d, 0x28, 0xbd,
  0x86, 0xd2, 0xcb, 0xbc, 0xe1, 0x96, 0x56, 0xbd, 0xfa, 0x85, 0x5e, 0x3d,
  0x07, 0x66, 0xa8, 0x3c, 0x9f, 0x8f, 0x1c, 0x3e, 0xc1, 0xfa, 0xa6, 0x3d,
  0xae, 0x2a, 0x30, 0x3d, 0x5d, 0xcd, 0x5a, 0x40, 0x0f, 0x5e, 0xfe, 0x3e,
  0x12, 0x59, 0x6c, 0xbe, 0x9a, 0x84, 0x81, 0xbe, 0xc7, 0x68, 0x58, 0xbe,
  0x78, 0x85, 0xa4, 0x3d, 0x3d, 0x12, 0x0f, 0x3e, 0x92, 0xe1, 0x45, 0xbd,
  0x55, 0xc7, 0x41, 0xbe, 0x4b, 0xb2, 0x16, 0xbe, 0xff, 0x92, 0x3b, 0xbd,
  0x1e, 0x05, 0xa2, 0xbd, 0x4d, 0xfc, 0x80, 0xbd, 0xbf, 0x03, 0x93, 0xbe,
  0x66, 0xfd, 0xff, 0xff, 0x10, 0x00, 0x00, 0x00, 0x07, 0x00, 0x00, 0x00,
  0x14, 0x00, 0x00, 0x00, 0x2c, 0x00, 0x00, 0x00, 0x02, 0x00, 0x00, 0x00,
  0x10, 0x00, 0x00, 0x00, 0x70, 0x00, 0x00, 0x00, 0x17, 0x00, 0x00, 0x00,
  0x73, 0x65, 0x71, 0x75, 0x65, 0x6e, 0x74, 0x69, 0x61, 0x6c, 0x2f, 0x64,
  0x65, 0x6e, 0x73, 0x65, 0x2f, 0x4d, 0x61, 0x74, 0x4d, 0x75, 0x6c, 0x00,
  0xd0, 0xfc, 0xff, 0xff, 0xda, 0xfd, 0xff, 0xff, 0x04, 0x00, 0x00, 0x00,
  0x08, 0x00, 0x00, 0x00, 0xff, 0xff, 0xff, 0xff, 0x70, 0x00, 0x00, 0x00,
  0x00, 0x00, 0x0e, 0x00, 0x18, 0x00, 0x08, 0x00, 0x07, 0x00, 0x0c, 0x00,
  0x10, 0x00, 0x14, 0x00, 0x0e, 0x00, 0x00, 0x00, 0x00, 0x00, 0x00, 0x02,
  0x10, 0x00, 0x00, 0x00, 0x06, 0x00, 0x00, 0x00, 0x10, 0x00, 0x00, 0x00,
  0x2c, 0x00, 0x00, 0x00, 0x01, 0x00, 0x00, 0x00, 0x02, 0x00, 0x00, 0x00,
  0x18, 0x00, 0x00, 0x00, 0x73, 0x65, 0x71, 0x75, 0x65, 0x6e, 0x74, 0x69,
  0x61, 0x6c, 0x2f, 0x66, 0x6c, 0x61, 0x74, 0x74, 0x65, 0x6e, 0x2f, 0x43,
  0x6f, 0x6e, 0x73, 0x74, 0x00, 0x00, 0x00, 0x00, 0x38, 0xfd, 0xff, 0xff,
  0x42, 0xfe, 0xff, 0xff, 0x04, 0x00, 0x00, 0x00, 0x0c, 0x00, 0x00, 0x00,
  0x36, 0x2f, 0x12, 0xbf, 0xcf, 0x15, 0xa0, 0xbf, 0x31, 0x20, 0xbc, 0x3f,
  0x26, 0xfe, 0xff, 0xff, 0x10, 0x00, 0x00, 0x00, 0x05, 0x00, 0x00, 0x00,
  0x10, 0x00, 0x00, 0x00, 0x44, 0x00, 0x00, 0x00, 0x01, 0x00, 0x00, 0x00,
  0x03, 0x00, 0x00, 0x00, 0x32, 0x00, 0x00, 0x00, 0x73, 0x65, 0x71, 0x75,
  0x65, 0x6e, 0x74, 0x69, 0x61, 0x6c, 0x2f, 0x64, 0x65, 0x6e, 0x73, 0x65,
  0x5f, 0x31, 0x2f, 0x42, 0x69, 0x61, 0x73, 0x41, 0x64, 0x64, 0x2f, 0x52,
  0x65, 0x61, 0x64, 0x56, 0x61, 0x72, 0x69, 0x61, 0x62, 0x6c, 0x65, 0x4f,
  0x70, 0x2f, 0x72, 0x65, 0x73, 0x6f, 0x75, 0x72, 0x63, 0x65, 0x00, 0x00,
  0xa8, 0xfd, 0xff, 0xff, 0xb2, 0xfe, 0xff, 0xff, 0x04, 0x00, 0x00, 0x00,
  0x40, 0x00, 0x00, 0x00, 0x84, 0xe8, 0xb9, 0xbe, 0xcb, 0xf7, 0x2d, 0xbf,
  0x89, 0x72, 0xb9, 0x3f, 0xf7, 0xbb, 0x39, 0xc0, 0x14, 0x7c, 0x91, 0xbe,
  0x7b, 0x59, 0x5d, 0xbf, 0xcb, 0x32, 0x7a, 0xbf, 0x25, 0x98, 0x4a, 0x40,
  0x03, 0xbd, 0x85, 0xbf, 0xb3, 0xfe, 0x1e, 0xbf, 0xbc, 0x81, 0xef, 0x3f,
  0x1e, 0x65, 0x94, 0x3f, 0x4b, 0x56, 0x2d, 0x40, 0x0a, 0x67, 0x18, 0xc0,
  0x66, 0x02, 0x96, 0xbf, 0xde, 0x59, 0x6b, 0xbf, 0xca, 0xfe, 0xff, 0xff,
  0x10, 0x00, 0x00, 0x00, 0x04, 0x00, 0x00, 0x00, 0x10, 0x00, 0x00, 0x00,
  0x44, 0x00, 0x00, 0x00, 0x01, 0x00, 0x00, 0x00, 0x10, 0x00, 0x00, 0x00,
  0x30, 0x00, 0x00, 0x00, 0x73, 0x65, 0x71, 0x75, 0x65, 0x6e, 0x74, 0x69,
  0x61, 0x6c, 0x2f, 0x64, 0x65, 0x6e, 0x73, 0x65, 0x2f, 0x42, 0x69, 0x61,
  0x73, 0x41, 0x64, 0x64, 0x2f, 0x52, 0x65, 0x61, 0x64, 0x56, 0x61, 0x72,
  0x69, 0x61, 0x62, 0x6c, 0x65, 0x4f, 0x70, 0x2f, 0x72, 0x65, 0x73, 0x6f,
  0x75, 0x72, 0x63, 0x65, 0x00, 0x00, 0x00, 0x00, 0x4c, 0xfe, 0xff, 0xff,
  0x56, 0xff, 0xff, 0xff, 0x04, 0x00, 0x00, 0x00, 0x40, 0x00, 0x00, 0x00,
  0x42, 0x14, 0xe6, 0xbe, 0x13, 0x09, 0xf5, 0xbc, 0x72, 0xb8, 0x6b, 0x40,
  0x7c, 0x63, 0xbd, 0x3f, 0x01, 0xde, 0xa1, 0x3f, 0x50, 0x30, 0x88, 0x3e,
  0xad, 0x6a, 0x00, 0xc0, 0xeb, 0xa0, 0x00, 0xc0, 0x48, 0x06, 0x81, 0xbf,
  0x15, 0x57, 0x75, 0xbf, 0x3b, 0xc4, 0x05, 0x40, 0xd1, 0xe1, 0x93, 0xbf,
  0x1c, 0xa4, 0x1a, 0xbf, 0x4b, 0x3b, 0x0c, 0xc0, 0x66, 0xc0, 0x9f, 0x3f,
  0x5b, 0x26, 0xaf, 0x3f, 0x6e, 0xff, 0xff, 0xff, 0x10, 0x00, 0x00, 0x00,
  0x03, 0x00, 0x00, 0x00, 0x10, 0x00, 0x00, 0x00, 0x48, 0x00, 0x00, 0x00,
  0x01, 0x00, 0x00, 0x00, 0x10, 0x00, 0x00, 0x00, 0x33, 0x00, 0x00, 0x00,
  0x73, 0x65, 0x71, 0x75, 0x65, 0x6e, 0x74, 0x69, 0x61, 0x6c, 0x2f, 0x63,
  0x6f, 0x6e, 0x76, 0x32, 0x64, 0x5f, 0x31, 0x2f, 0x42, 0x69, 0x61, 0x73,
  0x41, 0x64, 0x64, 0x2f, 0x52, 0x65, 0x61, 0x64, 0x56, 0x61, 0x72, 0x69,
  0x61, 0x62, 0x6c, 0x65, 0x4f, 0x70, 0x2f, 0x72, 0x65, 0x73, 0x6f, 0x75,
  0x72, 0x63, 0x65, 0x00, 0x04, 0x00, 0x06, 0x00, 0x04, 0x00, 0x00, 0x00,
  0x00, 0x00, 0x06, 0x00, 0x08, 0x00, 0x04, 0x00, 0x06, 0x00, 0x00, 0x00,
  0x04, 0x00, 0x00, 0x00, 0x20, 0x00, 0x00, 0x00, 0xf8, 0x65, 0x33, 0x3f,
  0xfb, 0xb7, 0x45, 0xc0, 0x96, 0xc8, 0xa6, 0x3f, 0x82, 0x8f, 0x58, 0xbf,
  0xe9, 0x78, 0x80, 0xbf, 0x73, 0xcd, 0x0f, 0xbe, 0xa4, 0xff, 0xbf, 0x3d,
  0x1d, 0x95, 0x50, 0xc0, 0x00, 0x00, 0x0e, 0x00, 0x14, 0x00, 0x04, 0x00,
  0x00, 0x00, 0x08, 0x00, 0x0c, 0x00, 0x10, 0x00, 0x0e, 0x00, 0x00, 0x00,
  0x10, 0x00, 0x00, 0x00, 0x02, 0x00, 0x00, 0x00, 0x10, 0x00, 0x00, 0x00,
  0x44, 0x00, 0x00, 0x00, 0x01, 0x00, 0x00, 0x00, 0x08, 0x00, 0x00, 0x00,
  0x31, 0x00, 0x00, 0x00, 0x73, 0x65, 0x71, 0x75, 0x65, 0x6e, 0x74, 0x69,
  0x61, 0x6c, 0x2f, 0x63, 0x6f, 0x6e, 0x76, 0x32, 0x64, 0x2f, 0x42, 0x69,
  0x61, 0x73, 0x41, 0x64, 0x64, 0x2f, 0x52, 0x65, 0x61, 0x64, 0x56, 0x61,
  0x72, 0x69, 0x61, 0x62, 0x6c, 0x65, 0x4f, 0x70, 0x2f, 0x72, 0x65, 0x73,
  0x6f, 0x75, 0x72, 0x63, 0x65, 0x00, 0x00, 0x00, 0x90, 0xff, 0xff, 0xff,
  0x14, 0x00, 0x18, 0x00, 0x04, 0x00, 0x00, 0x00, 0x08, 0x00, 0x0c, 0x00,
  0x10, 0x00, 0x00, 0x00, 0x00, 0x00, 0x14, 0x00, 0x14, 0x00, 0x00, 0x00,
  0x14, 0x00, 0x00, 0x00, 0x01, 0x00, 0x00, 0x00, 0x20, 0x00, 0x00, 0x00,
  0x44, 0x00, 0x00, 0x00, 0x2c, 0x00, 0x00, 0x00, 0x04, 0x00, 0x00, 0x00,
  0x01, 0x00, 0x00, 0x00, 0x40, 0x00, 0x00, 0x00, 0x03, 0x00, 0x00, 0x00,
  0x01, 0x00, 0x00, 0x00, 0x0c, 0x00, 0x00, 0x00, 0x63, 0x6f, 0x6e, 0x76,
  0x32, 0x64, 0x5f, 0x69, 0x6e, 0x70, 0x75, 0x74, 0x00, 0x00, 0x00, 0x00,
  0x04, 0x00, 0x00, 0x00, 0xff, 0xff, 0xff, 0xff, 0x40, 0x00, 0x00, 0x00,
  0x03, 0x00, 0x00, 0x00, 0x01, 0x00, 0x00, 0x00, 0xfc, 0xff, 0xff, 0xff,
  0x04, 0x00, 0x04, 0x00, 0x04, 0x00, 0x00, 0x00
};

unsigned int model_tflite_len = 13052;// Fill the int in `src/model.cc` here